<unk>	0
<s>	0
</s>	0
.	-3.30231
▁der	-3.74487
▁	-3.7671
,	-3.77942
s	-3.89931
en	-4.05448
n	-4.07379
▁und	-4.08047
▁die	-4.11481
▁in	-4.17051
e	-4.37069
-	-4.58415
▁von	-4.7777
▁im	-4.88704
▁er	-4.8896
er	-4.89281
▁den	-4.9899
▁des	-5.14173
▁mit	-5.15381
▁"	-5.16946
▁das	-5.2188
▁wurde	-5.31808
r	-5.3618
▁ein	-5.36391
t	-5.38263
▁an	-5.38892
"	-5.39419
▁(	-5.40968
m	-5.42754
▁auf	-5.43376
▁dem	-5.44903
▁als	-5.46016
▁ist	-5.47561
)	-5.55023
▁eine	-5.56021
▁für	-5.56494
▁war	-5.58284
▁zu	-5.58369
#	-5.63487
▁#	-5.68094
▁am	-5.72688
▁nach	-5.77529
▁sich	-5.78617
▁aus	-5.83112
▁bei	-5.90756
▁bis	-5.95054
▁sie	-5.9777
es	-6.02185
▁auch	-6.11363
a	-6.2487
▁zum	-6.25006
▁seine	-6.25529
d	-6.25682
:	-6.2859
▁es	-6.32596
in	-6.33009
k	-6.35906
▁über	-6.36978
▁„	-6.38864
▁einer	-6.38872
te	-6.39228
▁ab	-6.4135
o	-6.42103
▁durch	-6.45864
▁unter	-6.46032
▁um	-6.5222
▁vor	-6.53526
l	-6.54644
▁einem	-6.54921
b	-6.55351
c	-6.60621
▁be	-6.61349
;	-6.62708
ung	-6.62948
i	-6.64488
▁ver	-6.64899
y	-6.65174
▁zur	-6.67847
h	-6.689
“	-6.71008
g	-6.74773
▁nicht	-6.75109
▁sind	-6.76143
f	-6.76689
z	-6.78886
▁werden	-6.79281
▁wurden	-6.84295
de	-6.84473
▁jahr	-6.86025
▁wird	-6.8753
ten	-6.88326
▁einen	-6.90473
▁so	-6.91345
▁vo	-6.93291
▁de	-6.94018
▁zwei	-6.96719
▁sein	-6.97173
an	-6.9983
▁seit	-7.02404
▁seiner	-7.03006
▁oder	-7.0327
▁wie	-7.0362
▁ge	-7.06732
ge	-7.08298
▁wo	-7.1013
u	-7.10702
▁m	-7.11529
▁sowie	-7.11771
p	-7.13114
▁(*	-7.14042
",	-7.15052
▁hatte	-7.15354
/	-7.15515
▁of	-7.17709
al	-7.18428
▁jahre	-7.1848
▁ihre	-7.19296
▁a	-7.20818
le	-7.22666
▁da	-7.22927
),	-7.23767
ü	-7.24006
el	-7.24634
us	-7.25607
▁nur	-7.26205
▁gegen	-7.26414
).	-7.27361
▁teil	-7.27464
w	-7.28427
▁dass	-7.2868
▁zwischen	-7.28888
▁stadt	-7.28906
▁leben	-7.29781
ter	-7.30073
▁noch	-7.30817
▁b	-7.31318
▁–	-7.31494
ä	-7.34856
▁diese	-7.34952
ischen	-7.35107
▁d	-7.38615
v	-7.3881
▁c	-7.39058
be	-7.39124
▁waren	-7.3921
ch	-7.39658
sch	-7.39856
▁drei	-7.41295
▁ersten	-7.42539
▁dieser	-7.42737
is	-7.42832
▁zeit	-7.43079
ma	-7.43329
la	-7.43993
▁re	-7.44495
▁aber	-7.44761
st	-7.45795
der	-7.45893
re	-7.45962
▁hat	-7.46647
▁wieder	-7.46782
den	-7.47745
▁national	-7.48411
▁jahren	-7.48426
–	-7.50346
▁dort	-7.50433
▁st	-7.51161
▁man	-7.51244
na	-7.52342
▁la	-7.52441
19	-7.54541
ver	-7.55013
▁später	-7.5535
▁k	-7.55593
ig	-7.55686
land	-7.57425
▁beim	-7.58747
▁liste	-7.58785
ta	-7.58872
um	-7.6032
▁2011	-7.61305
ar	-7.61669
▁während	-7.62116
ur	-7.6253
▁märz	-7.62571
".	-7.62647
▁17	-7.62869
▁april	-7.63487
▁mai	-7.63698
et	-7.64279
▁15	-7.64305
▁jedoch	-7.64598
▁geschichte	-7.65299
é	-7.65568
isch	-7.65935
ra	-7.66213
▁etwa	-7.66229
▁ihr	-7.66474
▁saison	-7.6672
▁s	-7.67322
▁kam	-7.67347
j	-7.67632
▁erste	-7.68567
▁gemeinde	-7.70693
or	-7.70963
▁alle	-7.71482
on	-7.71624
▁januar	-7.71733
▁august	-7.71933
to	-7.72552
†	-7.72793
lich	-7.73231
▁konnte	-7.74091
▁bau	-7.74169
▁zusammen	-7.74667
ö	-7.74992
▁vier	-7.75328
▁universität	-7.76389
▁mehr	-7.76402
ul	-7.76588
ische	-7.76761
")	-7.77081
at	-7.7714
▁zurück	-7.77207
▁ende	-7.77294
▁bereits	-7.78014
it	-7.78236
iert	-7.78654
▁juni	-7.78732
▁1.	-7.79183
da	-7.79412
▁sch	-7.79819
▁deutschen	-7.7998
▁oktober	-7.81159
em	-7.81228
▁juli	-7.81661
▁ihm	-7.82056
ing	-7.8225
2	-7.8285
▁u	-7.8305
di	-7.8325
▁weitere	-7.83283
au	-7.83526
▁p	-7.83603
mann	-7.83791
▁mitglied	-7.84298
il	-7.84332
▁v	-7.84861
ie	-7.85308
▁16	-7.85375
▁neu	-7.8558
▁18	-7.85616
▁g	-7.86026
▁film	-7.86127
ke	-7.86267
▁i	-7.87012
ner	-7.87067
▁liegt	-7.87157
▁f	-7.87333
ca	-7.87565
’	-7.87976
▁ihrer	-7.88531
ro	-7.88612
▁us	-7.88795
▁november	-7.89159
zu	-7.89505
▁september	-7.89995
▁neben	-7.90128
▁platz	-7.9081
▁erhielt	-7.91221
li	-7.92849
▁dann	-7.92998
▁dezember	-7.93164
▁the	-7.93403
▁ihn	-7.93407
▁le	-7.93498
▁w	-7.94398
co	-7.9453
ler	-7.95154
▁2010	-7.95297
▁un	-7.96922
▁nahm	-7.96929
ck	-7.97046
ka	-7.97127
▁name	-7.973
ia	-7.97853
bau	-7.981
sa	-7.98386
as	-7.98648
ne	-7.99578
lo	-7.99784
▁februar	-7.99821
berg	-7.99826
son	-7.99847
▁h	-8.00008
▁begann	-8.00352
▁pa	-8.00486
ba	-8.01122
▁dabei	-8.0174
ko	-8.01744
▁l	-8.01808
th	-8.02772
gebiet	-8.02778
▁ca	-8.03268
▁gab	-8.03506
▁zweiten	-8.03636
ungen	-8.03862
rat	-8.04052
3	-8.04646
do	-8.04845
▁county	-8.05121
▁zunächst	-8.054
gen	-8.05435
▁paul	-8.05764
ri	-8.05879
zeit	-8.06341
▁co	-8.06543
go	-8.06579
▁vi	-8.07183
▁historic	-8.07379
ti	-8.07923
▁haupt	-8.07929
ed	-8.08063
▁folgender	-8.08109
▁bo	-8.08204
▁z	-8.08314
bach	-8.08477
▁kirche	-8.08668
▁2	-8.08778
ll	-8.09225
▁heute	-8.0932
▁1	-8.09663
▁ha	-8.09739
os	-8.09791
▁diesem	-8.10092
man	-8.10207
▁t	-8.10287
ab	-8.1053
bo	-8.11211
▁gewann	-8.11757
stand	-8.11909
amp	-8.12138
▁kann	-8.12673
▁hier	-8.12838
▁erst	-8.13467
▁bekannt	-8.13623
▁di	-8.13668
mi	-8.13816
▁damit	-8.13903
straße	-8.14151
▁sa	-8.14258
stein	-8.14339
sten	-8.14441
the	-8.14467
ation	-8.14791
ho	-8.14798
lt	-8.14829
▁deutscher	-8.1497
▁li	-8.15009
▁pro	-8.15047
die	-8.15441
▁ra	-8.15591
ja	-8.16196
▁ober	-8.16279
▁beiden	-8.16286
▁spielte	-8.17444
id	-8.17529
▁fünf	-8.17613
▁objekte	-8.17622
▁al	-8.17625
▁titel	-8.1774
▁trat	-8.17833
▁o	-8.18026
▁musik	-8.18049
▁je	-8.18717
lichen	-8.19349
ga	-8.19672
vi	-8.19759
▁naturschutz	-8.19775
ton	-8.20579
▁studierte	-8.20735
ut	-8.20934
▁ebenfalls	-8.20967
▁dessen	-8.21823
▁new	-8.21888
ist	-8.22139
no	-8.22211
he	-8.22387
se	-8.22615
▁3	-8.22716
igen	-8.22772
▁deutschland	-8.22824
▁land	-8.22992
▁personen	-8.232
ir	-8.23367
▁band	-8.23417
▁jahrhundert	-8.2344
▁ort	-8.23597
▁mal	-8.24913
▁karriere	-8.24915
▁register	-8.25049
▁anderen	-8.25188
hl	-8.25697
ierte	-8.25934
▁berlin	-8.25943
tz	-8.26394
ieren	-8.26672
▁international	-8.27249
ce	-8.27335
haus	-8.27455
ad	-8.27499
▁danach	-8.27765
ina	-8.27784
▁haben	-8.27837
▁("	-8.28071
ige	-8.28106
▁ent	-8.28141
liche	-8.28146
ster	-8.28364
cht	-8.28368
gt	-8.28629
▁namen	-8.28655
▁anderem	-8.28713
▁me	-8.28766
io	-8.28811
▁keine	-8.29103
▁nachdem	-8.29226
ol	-8.29771
x	-8.29804
un	-8.29907
▁lang	-8.30142
är	-8.3031
ry	-8.30396
▁landes	-8.30668
▁statt	-8.30803
▁neuen	-8.30922
▁mar	-8.3096
▁deutsche	-8.31155
▁tätig	-8.31575
▁places	-8.3184
▁selbst	-8.32202
▁ob	-8.32269
▁weiter	-8.32522
zi	-8.32709
▁2009	-8.33319
▁se	-8.33633
▁ho	-8.33741
4	-8.33944
1	-8.34559
ze	-8.34637
mo	-8.35166
grund	-8.36017
▁ma	-8.36054
▁kunst	-8.36324
▁sohn	-8.36461
▁po	-8.36493
▁verein	-8.36574
▁arbeitete	-8.36675
▁2008	-8.36894
▁west	-8.36908
▁du	-8.37265
▁2.	-8.3744
▁befindet	-8.38045
▁wasser	-8.38054
schaft	-8.38144
ard	-8.38192
▁km	-8.38661
me	-8.38905
▁welche	-8.38953
▁na	-8.38967
'	-8.3902
ein	-8.39154
▁einige	-8.3924
bar	-8.39411
ger	-8.3958
▁anschließend	-8.3961
▁welt	-8.39648
ve	-8.39735
mannschaft	-8.40306
ben	-8.40353
ste	-8.40603
▁1990	-8.408
▁2007	-8.40805
▁schloss	-8.41085
▁hin	-8.41877
▁steht	-8.42208
▁familie	-8.42343
ow	-8.42543
▁tod	-8.42756
▁bar	-8.42779
▁ro	-8.4284
▁jahres	-8.43003
▁20.	-8.43248
tor	-8.43387
▁2012	-8.4343
ende	-8.43574
▁14	-8.43702
ik	-8.43754
bei	-8.43773
ien	-8.44057
ine	-8.44185
▁erstmals	-8.44253
▁stand	-8.44377
▁ging	-8.4483
▁können	-8.44857
▁ag	-8.44894
▁&	-8.45117
▁rund	-8.45129
▁el	-8.45364
tra	-8.4553
6	-8.45752
im	-8.45987
▁gebiet	-8.46018
bi	-8.46021
spiel	-8.46115
ierung	-8.46201
ungs	-8.46368
wohl	-8.46375
chen	-8.46514
▁nord	-8.46672
▁gibt	-8.46702
▁hinter	-8.47019
▁frei	-8.47223
▁außerdem	-8.47393
▁erreichte	-8.47415
▁groß	-8.47442
ich	-8.47495
▁große	-8.47567
▁mehrere	-8.47651
feld	-8.47899
ci	-8.47942
▁berg	-8.4804
ion	-8.48123
si	-8.48425
▁mo	-8.48777
▁neue	-8.48833
0	-8.48982
▁5	-8.4941
▁pi	-8.49479
▁allem	-8.49657
▁10	-8.49775
▁fa	-8.49818
▁werk	-8.49877
amerikanische	-8.49975
▁art	-8.49996
▁18.	-8.50025
▁ii	-8.50044
▁see	-8.5025
▁großen	-8.50251
“.	-8.50303
meisterschaft	-8.50435
á	-8.50439
▁ar	-8.50682
▁do	-8.50784
ill	-8.50827
▁no	-8.5087
▁jo	-8.51056
▁insgesamt	-8.5108
▁sechs	-8.51564
▁4	-8.51574
5	-8.51587
pf	-8.51724
▁19.	-8.51823
▁professor	-8.51944
hof	-8.52028
▁her	-8.52155
po	-8.52211
▁ehemalige	-8.52273
we	-8.52435
▁ba	-8.52532
▁zudem	-8.52543
▁2006	-8.52646
▁river	-8.52915
▁fest	-8.53099
▁führt	-8.53197
ft	-8.53242
▁gehörte	-8.53407
▁kurz	-8.53504
▁university	-8.53545
schule	-8.53696
werk	-8.53787
▁mittel	-8.54238
▁ost	-8.54374
20	-8.54541
▁sei	-8.54768
her	-8.54809
▁allerdings	-8.55139
pa	-8.5551
▁13	-8.55528
▁2000	-8.55548
▁worden	-8.55603
▁go	-8.56164
ic	-8.56416
▁and	-8.56473
mm	-8.56518
▁spiel	-8.56887
▁hoch	-8.57045
welt	-8.57052
und	-8.57139
▁übernahm	-8.57366
▁lo	-8.57427
▁san	-8.57436
▁bereich	-8.57451
ell	-8.57524
▁dieses	-8.57573
am	-8.57632
ku	-8.57712
tal	-8.57874
▁fand	-8.57903
▁bzw	-8.5794
▁sehr	-8.57988
▁haus	-8.57996
▁meter	-8.58006
gi	-8.58595
weg	-8.58623
▁kon	-8.58623
pe	-8.58813
▁j	-8.5901
auf	-8.59035
enden	-8.59037
▁buch	-8.59211
ier	-8.59281
▁kinder	-8.59385
▁ohne	-8.5962
sp	-8.60083
▁formula	-8.60099
ber	-8.60183
▁europa	-8.60271
end	-8.60317
▁erneut	-8.60343
▁grund	-8.60367
fa	-8.60388
ius	-8.60419
▁3.	-8.60479
mar	-8.60505
▁wechselte	-8.60514
▁stein	-8.60881
▁entwicklung	-8.60888
▁wegen	-8.60997
▁su	-8.61135
ken	-8.61508
▁weiteren	-8.61769
▁2005	-8.62059
▁gebäude	-8.62122
▁ne	-8.62445
▁lu	-8.62498
“,	-8.62557
stadt	-8.62675
▁hu	-8.6287
iz	-8.63057
▁was	-8.63083
▁ru	-8.6312
▁bundes	-8.633
▁album	-8.63336
▁aktiv	-8.63688
pp	-8.64281
▁he	-8.64339
aus	-8.64495
wa	-8.6461
ert	-8.64651
▁führte	-8.64728
▁con	-8.6478
bel	-8.64869
ni	-8.64953
▁frauen	-8.65061
▁schon	-8.65309
▁6	-8.65372
▁2013	-8.65566
pi	-8.65644
▁schul	-8.65709
▁anfang	-8.65953
▁aufgenommen	-8.66072
▁ko	-8.66418
▁johann	-8.67028
ort	-8.67047
fe	-8.67204
heim	-8.67288
▁16.	-8.67535
▁nieder	-8.67773
▁gewählt	-8.67886
meisterschaften	-8.68152
▁gu	-8.68153
ling	-8.68285
▁fi	-8.68475
▁einsatz	-8.68733
▁gesellschaft	-8.69099
lauf	-8.69391
▁ri	-8.69473
▁immer	-8.69629
▁bischof	-8.69681
▁schließlich	-8.69733
burg	-8.69735
▁per	-8.6981
zen	-8.69867
▁1980	-8.70003
▁2003	-8.7002
▁2002	-8.70025
▁nrhp	-8.70267
▁gelistete	-8.70269
za	-8.70346
▁partei	-8.70353
ischer	-8.70373
see	-8.70426
gruppe	-8.70606
▁kreis	-8.70768
▁1996	-8.71076
▁1970	-8.71076
▁ka	-8.71346
lu	-8.71537
▁folgenden	-8.71818
kt	-8.71886
▁gut	-8.71894
fer	-8.72274
▁12	-8.72516
▁jahrhunderts	-8.72727
▁to	-8.72736
gel	-8.72849
än	-8.73041
ha	-8.73088
▁ta	-8.73159
▁staats	-8.73292
18	-8.73351
▁einzel	-8.73364
▁%	-8.73483
▁2004	-8.73543
▁2001	-8.73549
▁friedrich	-8.73813
bu	-8.73962
ki	-8.74087
ub	-8.74164
va	-8.74266
tt	-8.74441
▁andere	-8.74591
▁1994	-8.74647
▁sollte	-8.7475
▁historische	-8.74852
▁zog	-8.74998
tion	-8.75142
▁papst	-8.75206
▁gruppe	-8.75219
▁erfolgte	-8.75231
keit	-8.75787
du	-8.75999
▁sp	-8.7613
erhalb	-8.76214
que	-8.76265
▁bezeichnet	-8.76266
▁gründung	-8.76295
▁london	-8.76338
▁nun	-8.76565
ker	-8.76595
ale	-8.76598
▁arbeit	-8.76611
▁20	-8.76628
▁römisch	-8.76792
heit	-8.76832
▁sitz	-8.76864
▁letzten	-8.76868
▁tochter	-8.76909
▁acht	-8.77052
ak	-8.77165
▁15.	-8.77495
platz	-8.77614
▁2016	-8.77778
▁viele	-8.77816
▁hans	-8.77824
▁landkreis	-8.78014
▁pe	-8.78257
▁gemeinsam	-8.78288
▁sport	-8.78392
▁könig	-8.78426
ei	-8.78484
▁zweite	-8.78634
▁wilhelm	-8.78646
▁johannes	-8.78657
ek	-8.78672
system	-8.78677
▁17.	-8.7872
kirche	-8.78767
sse	-8.78778
meister	-8.78878
▁dazu	-8.79118
▁karl	-8.79142
vor	-8.79584
ok	-8.79707
▁wald	-8.79715
recht	-8.80088
▁1945	-8.80108
▁wenig	-8.8028
▁errichtet	-8.80296
▁john	-8.8037
▁bestand	-8.80373
▁(18	-8.8047
▁fl	-8.80496
▁süd	-8.80797
▁form	-8.80958
sche	-8.81112
▁lag	-8.81174
▁sc	-8.81652
▁blieb	-8.81661
▁13.	-8.81743
dr	-8.81922
.000	-8.82059
▁musste	-8.82092
▁mi	-8.82095
sel	-8.82128
ium	-8.82156
▁tor	-8.82157
▁2014	-8.82206
zahl	-8.82345
▁unternehmen	-8.82403
▁kultur	-8.82564
▁fc	-8.82588
▁region	-8.82709
che	-8.8274
▁1998	-8.83107
tsch	-8.83224
▁jugend	-8.83315
▁alt	-8.83508
▁dienst	-8.83577
▁1999	-8.83718
wald	-8.83731
▁kilometer	-8.83762
gang	-8.84019
▁york	-8.84023
▁4.	-8.84071
▁liga	-8.84586
eck	-8.84635
fi	-8.84739
mp	-8.84808
ach	-8.84874
▁ursprünglich	-8.84948
▁besteht	-8.84952
▁dr	-8.85018
▁erhalten	-8.85031
▁starb	-8.85056
▁gehört	-8.8507
▁14.	-8.85101
▁tri	-8.85134
▁frau	-8.85151
▁weltkrieg	-8.8546
▁wahl	-8.85462
▁provinz	-8.85555
su	-8.85584
ru	-8.85667
stellung	-8.85798
les	-8.85858
kmalgeschützten	-8.86022
art	-8.86063
▁8.	-8.86083
mit	-8.86099
▁reich	-8.86193
▁12.	-8.86194
▁ni	-8.86476
▁erschien	-8.86658
buch	-8.86679
▁ehe	-8.86782
veröffentlichung	-8.86826
▁spielen	-8.86841
▁gegründet	-8.87031
arbeit	-8.87151
▁2015	-8.87154
by	-8.87218
ment	-8.87376
iger	-8.87407
weise	-8.87521
▁studium	-8.8776
▁diesen	-8.87773
▁alten	-8.87777
▁betrieb	-8.87907
▁natur	-8.87912
▁zahlreiche	-8.87987
▁usa	-8.8819
wand	-8.88228
▁mannschaft	-8.88248
▁as	-8.88288
▁ki	-8.88313
▁münchen	-8.88347
▁fußball	-8.88366
▁sommer	-8.88424
op	-8.88514
ug	-8.88641
▁we	-8.88774
ly	-8.88795
▁bistum	-8.88798
▁25.	-8.88897
mal	-8.88966
▁schwarz	-8.89019
▁amt	-8.89036
▁gesamt	-8.89117
í	-8.89197
per	-8.89258
▁vater	-8.89325
▁1989	-8.89389
▁zehn	-8.89795
▁gleich	-8.89856
▁hatten	-8.89866
dienst	-8.89982
▁gi	-8.90202
▁sondern	-8.90247
▁menschen	-8.90251
▁österreich	-8.90714
▁10.	-8.90742
▁möglich	-8.90794
▁peter	-8.90831
▁genannt	-8.90986
▁spieler	-8.90988
▁jeweils	-8.91021
▁6.	-8.91087
▁doch	-8.91141
“)	-8.91261
ag	-8.91305
▁for	-8.91379
schen	-8.91591
del	-8.91616
▁alter	-8.91621
▁schwer	-8.91718
▁paris	-8.91809
▁21.	-8.9187
▁veröffentlicht	-8.91895
▁frankreich	-8.91907
▁verwendet	-8.92014
▁rechts	-8.9218
▁general	-8.92268
▁verschiedenen	-8.92292
▁fluss	-8.92564
kreis	-8.92719
gu	-8.92779
satz	-8.92878
ität	-8.92913
▁besuchte	-8.92985
▁ließ	-8.9324
9	-8.9334
▁1992	-8.93357
sk	-8.93465
ingen	-8.93499
bahn	-8.93561
▁britische	-8.93618
▁darunter	-8.93701
▁moor	-8.93936
▁eingesetzt	-8.94016
▁darauf	-8.9404
schiff	-8.94226
▁post	-8.94599
lass	-8.94619
▁absolvierte	-8.94693
deck	-8.94716
▁finden	-8.94737
ff	-8.94798
sta	-8.94813
▁te	-8.95035
▁genutzt	-8.95055
hu	-8.95107
verein	-8.95168
preis	-8.9522
rad	-8.95228
▁dar	-8.953
tel	-8.9533
gesellschaft	-8.95593
▁folge	-8.95725
7	-8.9607
form	-8.96315
▁künstler	-8.96344
▁1987	-8.96439
ot	-8.96498
▁einwohner	-8.96797
▁park	-8.96829
▁raum	-8.97014
▁car	-8.97018
▁georg	-8.97023
▁beginn	-8.97055
film	-8.97107
▁soll	-8.9724
▁mitte	-8.97278
▁van	-8.97466
ant	-8.97478
▁gründete	-8.9749
▁ja	-8.975
▁wenn	-8.97608
tr	-8.97627
▁meist	-8.97639
vo	-8.97771
schlag	-8.97807
8	-8.97824
so	-8.97917
innen	-8.97929
▁wa	-8.98244
▁ger	-8.98277
enberg	-8.98306
▁fort	-8.98322
▁2017	-8.98384
▁südlich	-8.98401
▁volks	-8.98502
spieler	-8.98576
▁entstand	-8.98629
▁schiff	-8.987
ya	-8.988
kon	-8.98812
▁1997	-8.98904
band	-8.98911
▁r	-8.99164
ierten	-8.99257
▁7.	-8.99392
hm	-8.99569
▁rang	-8.99811
▁beide	-8.99848
lin	-8.99861
ologie	-8.99873
▁30.	-8.99953
ent	-9.00022
▁norden	-9.00096
▁house	-9.00237
lie	-9.00522
▁gelang	-9.00525
lei	-9.00622
▁entstanden	-9.00678
▁geboren	-9.00756
▁26.	-9.00891
▁ju	-9.00896
▁ausbildung	-9.00909
tri	-9.00933
sicht	-9.00939
▁league	-9.00986
▁martin	-9.01098
▁rahmen	-9.01231
▁folgte	-9.01294
▁1991	-9.01431
ou	-9.01464
▁theater	-9.01532
▁daher	-9.01553
▁veröffentlichte	-9.01702
▁5.	-9.01709
ven	-9.0174
▁1960	-9.01798
▁weit	-9.01935
wer	-9.02027
▁europäische	-9.02127
▁politiker	-9.02229
▁stark	-9.02249
ete	-9.0241
▁22.	-9.02456
▁maria	-9.02477
▁fu	-9.02496
tum	-9.02528
▁1950	-9.02537
▁straße	-9.02537
acht	-9.02561
▁direkt	-9.02681
▁schweiz	-9.0275
dy	-9.02779
lang	-9.02816
▁sta	-9.02816
▁mark	-9.02817
▁turm	-9.0285
▁11	-9.02859
▁präsident	-9.02893
▁31	-9.03166
cher	-9.03189
ty	-9.03211
▁baudenkmal	-9.03289
▁nahe	-9.03313
▁frankfurt	-9.03374
bereich	-9.03435
▁weg	-9.03455
ron	-9.03598
▁insbesondere	-9.03647
hi	-9.03677
selben	-9.03796
▁ernannt	-9.0393
▁östlich	-9.03933
ian	-9.03958
ph	-9.04175
▁fast	-9.04176
▁millionen	-9.04213
▁tag	-9.04264
▁gold	-9.04522
▁holz	-9.0456
▁dorf	-9.04663
om	-9.04684
lau	-9.04725
▁davon	-9.04816
ismus	-9.04834
▁team	-9.05066
▁8	-9.05263
▁süden	-9.05275
▁sprache	-9.05299
raum	-9.05394
▁ti	-9.05442
▁bra	-9.05467
▁nördlich	-9.05688
▁letzte	-9.05782
▁23.	-9.05909
▁heinrich	-9.05915
▁30	-9.05985
▁spielzeit	-9.06047
rt	-9.06168
tu	-9.06243
amt	-9.0625
ica	-9.06281
od	-9.06379
▁kirchen	-9.06505
▁ziel	-9.06572
ski	-9.06575
▁erzbistum	-9.06685
wi	-9.06687
seite	-9.06773
▁ddr	-9.06775
▁eigene	-9.07016
▁bevölkerung	-9.07081
▁har	-9.07143
▁machte	-9.0719
val	-9.07297
wo	-9.07302
gg	-9.07361
▁heutigen	-9.07413
ó	-9.0743
▁hamburg	-9.07481
▁heimat	-9.0772
ov	-9.07785
ud	-9.0792
▁11.	-9.08041
▁internationale	-9.08093
▁rom	-9.08094
▁olympische	-9.08239
▁1985	-9.0824
ai	-9.08426
min	-9.0855
▁jüdische	-9.08554
▁klein	-9.0861
▁verheiratet	-9.08629
▁1968	-9.08632
▁burg	-9.08646
sh	-9.08738
▁sieben	-9.08834
▁reichs	-9.08969
igt	-9.08975
rie	-9.09218
▁verschiedene	-9.0936
▁besonders	-9.09418
▁1983	-9.0942
▁höhe	-9.09735
▁abge	-9.0977
▁28.	-9.09779
len	-9.09895
▁ange	-9.09907
▁französischen	-9.10101
bin	-9.10154
▁hochschule	-9.10176
10	-9.10248
▁friedhof	-9.10306
▁kreuz	-9.10319
je	-9.1077
ß	-9.10779
▁rot	-9.10788
▁chr	-9.10858
tag	-9.10996
nd	-9.11355
rand	-9.11383
ley	-9.11403
führung	-9.11459
▁setzte	-9.11589
teil	-9.11653
fahrt	-9.11662
▁heraus	-9.11827
liga	-9.11864
▁gilt	-9.11865
▁erster	-9.11884
ett	-9.11897
▁projekt	-9.11908
cha	-9.11994
▁cor	-9.12029
▁roman	-9.12077
▁pu	-9.12127
▁inter	-9.12132
▁militär	-9.1231
katholische	-9.12379
▁werke	-9.12506
▁italien	-9.12644
treten	-9.12817
dan	-9.12968
nach	-9.13058
ord	-9.13261
▁ausge	-9.13432
▁staffel	-9.13442
▁1969	-9.13461
▁school	-9.13468
▁wien	-9.13692
▁neun	-9.1379
▁2018	-9.13896
▁y	-9.14209
▁beteiligt	-9.14287
▁prozent	-9.14301
▁viel	-9.14465
▁privat	-9.14492
rei	-9.14668
▁startete	-9.14723
lager	-9.14805
▁au	-9.14946
los	-9.15023
▁benannt	-9.15122
▁1974	-9.15125
tischen	-9.15167
▁9.	-9.15219
ick	-9.1524
▁armee	-9.15245
▁schule	-9.15304
▁medizin	-9.15392
lle	-9.15574
▁zuvor	-9.15662
▁24.	-9.15759
▁diente	-9.15791
▁ga	-9.15902
▁serie	-9.15976
elle	-9.15987
▁leiter	-9.16166
▁7	-9.16166
▁arbeiten	-9.16173
wissenschaftlich	-9.16197
sti	-9.1623
eg	-9.16317
▁1984	-9.1639
▁beispiel	-9.16439
▁leicht	-9.16481
weit	-9.16486
▁vertrag	-9.1651
▁teile	-9.16535
tan	-9.16545
geschichte	-9.1658
iv	-9.1664
▁schüler	-9.16702
▁ad	-9.16731
bild	-9.16891
▁mm	-9.16963
▁schrieb	-9.16979
▁weil	-9.16998
ls	-9.17048
▁stammt	-9.17182
▁1988	-9.17244
▁ausgezeichnet	-9.17284
car	-9.17322
and	-9.17464
▁rad	-9.1747
▁college	-9.1767
▁rolle	-9.17768
zug	-9.17936
▁27.	-9.17987
▁michael	-9.18101
▁1993	-9.18104
klasse	-9.18452
▁ke	-9.18493
▁kleine	-9.18514
▁köln	-9.18536
▁1982	-9.18537
▁1995	-9.18538
▁100	-9.1857
turm	-9.18725
▁tief	-9.18761
universität	-9.18851
▁1981	-9.18971
▁seiten	-9.19064
▁meister	-9.19202
▁cha	-9.19207
▁tour	-9.19282
chi	-9.19295
hausen	-9.19318
▁regierung	-9.19345
▁erzielte	-9.19357
▁ex	-9.19369
▁stellte	-9.19478
50	-9.19618
rich	-9.19647
▁hof	-9.19692
stoff	-9.19729
▁9	-9.19758
▁gegenüber	-9.19896
▁kehrte	-9.19936
▁ehemaligen	-9.20127
ath	-9.20179
&	-9.20197
▁kriegs	-9.20233
▁lage	-9.20284
▁zusätzlich	-9.20284
▁1975	-9.20287
▁1944	-9.20288
▁tra	-9.20367
▁teilweise	-9.2038
▁halb	-9.20431
▁ed	-9.20536
▁konnten	-9.21039
og	-9.21205
isten	-9.21268
old	-9.21281
▁kamen	-9.21319
▁system	-9.21561
▁1978	-9.21621
▁1972	-9.21621
▁bedeutung	-9.21633
▁robert	-9.21648
▁richtung	-9.21891
▁allen	-9.21951
▁1971	-9.22069
▁familienname	-9.22071
ara	-9.22211
▁westlich	-9.22268
▁arbeits	-9.22359
▁ste	-9.22395
▁tu	-9.2243
richt	-9.22482
▁1977	-9.2252
▁daraufhin	-9.2254
▁29.	-9.22549
▁mutter	-9.22658
fl	-9.22668
ix	-9.22748
▁lange	-9.22937
▁michigan	-9.22969
▁krieg	-9.23061
▁kloster	-9.23128
▁klasse	-9.23159
▁funktion	-9.2322
ny	-9.23237
▁osten	-9.23244
▁del	-9.23411
▁grundlage	-9.23442
tin	-9.23556
▁preis	-9.23666
▁start	-9.23728
15	-9.23753
gemeinde	-9.23772
▁vereinigten	-9.23825
betrieb	-9.23879
▁häufig	-9.2388
▁flughafen	-9.23883
▁1976	-9.23884
▁recht	-9.23914
ring	-9.23962
▁unterschiedlich	-9.23995
log	-9.24019
sion	-9.24206
uch	-9.24457
▁erfolg	-9.2462
ator	-9.24742
▁damals	-9.24833
▁bürger	-9.24845
▁zeigt	-9.24929
▁direktor	-9.24978
jo	-9.25186
steig	-9.25329
if	-9.25342
ini	-9.25468
mon	-9.25484
▁sal	-9.25546
▁gast	-9.2567
▁insel	-9.25722
▁bruder	-9.25767
▁luft	-9.25771
▁einge	-9.25777
▁königreich	-9.25781
rit	-9.25834
▁nie	-9.25868
▁schweizer	-9.25888
▁schiffe	-9.26023
▁1986	-9.26198
bert	-9.262
trag	-9.26201
▁leitung	-9.2625
▁französische	-9.26252
pro	-9.26341
▁folgende	-9.26478
▁fall	-9.26484
nahme	-9.26612
▁franz	-9.26666
ang	-9.26674
▁zuge	-9.26701
▁deutsch	-9.26731
▁2019	-9.26755
▁lehr	-9.26985
komm	-9.27069
ec	-9.27072
▁1942	-9.27139
▁damalige	-9.27159
14	-9.27419
▁belegte	-9.27529
▁eigenen	-9.27635
▁zwar	-9.27637
res	-9.27781
▁grab	-9.27938
▁mor	-9.27994
ju	-9.28031
▁seite	-9.28111
▁fach	-9.2839
▁einzige	-9.28418
▁pri	-9.28501
cho	-9.28548
▁(„	-9.28613
▁rat	-9.28692
gar	-9.28912
▁erreicht	-9.29001
länder	-9.2912
▁eigen	-9.29185
fr	-9.29247
▁erzbischof	-9.29279
▁auto	-9.29349
▁tätigkeit	-9.2941
▁schnell	-9.29419
š	-9.29529
▁1966	-9.29532
▁1979	-9.29533
▁truppen	-9.29574
▁0	-9.29629
ehr	-9.29643
▁em	-9.29698
▁carl	-9.29718
▁siehe	-9.29853
▁pl	-9.2986
▁kar	-9.29912
▁par	-9.30061
ford	-9.30084
zy	-9.30149
▁chor	-9.30155
ita	-9.3021
▁ton	-9.30257
▁literatur	-9.30306
▁jan	-9.30428
▁mon	-9.30441
▁kommt	-9.30514
reich	-9.30792
unter	-9.30802
▁modell	-9.30874
▁1964	-9.30996
▁euro	-9.31016
▁city	-9.31042
han	-9.31056
▁handelt	-9.31059
up	-9.31187
▁polizei	-9.31231
▁bauwerke	-9.31241
▁markt	-9.31343
▁stehen	-9.31389
▁studien	-9.31402
▁abschluss	-9.3147
▁1933	-9.31488
▁gehören	-9.31489
▁thomas	-9.31492
kel	-9.31557
▁boden	-9.31717
sieg	-9.31722
▁arm	-9.3182
▁staaten	-9.31847
▁meisterschaft	-9.31914
hin	-9.3218
▁deutlich	-9.32189
▁öffentliche	-9.32257
▁straßen	-9.32362
einander	-9.32401
▁produktion	-9.32415
▁einträge	-9.32477
▁meisten	-9.32496
▁apostolische	-9.32533
richtung	-9.32572
▁wal	-9.32628
▁reihe	-9.3267
tische	-9.3275
▁gebaut	-9.3277
gesetzt	-9.32776
▁40	-9.32831
ō	-9.32977
▁1941	-9.3298
▁hohen	-9.33145
▁westen	-9.33174
▁25	-9.33328
▁zentral	-9.33345
▁1940	-9.33484
lage	-9.33724
▁hand	-9.33731
▁verlor	-9.33749
▁bevor	-9.33813
sport	-9.33883
▁biathlon	-9.33985
▁gleichzeitig	-9.33985
▁ebenso	-9.33985
▁hinaus	-9.34033
▁feld	-9.34054
▁größten	-9.34074
▁habe	-9.34087
verkehr	-9.34132
▁kleinen	-9.34203
200	-9.34274
▁darüber	-9.34504
▁organisation	-9.3457
▁sieg	-9.34624
ah	-9.34746
▁wohn	-9.34792
30	-9.3491
▁bu	-9.34977
führer	-9.34995
▁william	-9.35006
▁erfolgreich	-9.35027
▁laut	-9.35082
kar	-9.3521
▁jede	-9.35229
geb	-9.35344
sam	-9.3538
▁ku	-9.35392
▁rennen	-9.35543
▁ve	-9.35717
▁ganz	-9.3573
park	-9.35742
sberg	-9.3575
national	-9.35809
,5	-9.35917
cy	-9.35934
plan	-9.36034
ive	-9.36118
ros	-9.36269
▁forschungs	-9.36441
isiert	-9.36535
▁1973	-9.36552
00	-9.36637
▁landwirtschaft	-9.36854
fall	-9.36977
nis	-9.36996
▁col	-9.37053
▁24	-9.37058
▁hohe	-9.37062
▁single	-9.37074
▁mat	-9.37189
leben	-9.37237
▁österreichische	-9.37304
lö	-9.37359
▁gleichen	-9.37384
▁befand	-9.37405
▁nachfolger	-9.37479
▁verbindung	-9.37531
▁grün	-9.37564
leg	-9.37581
▁gelegene	-9.37626
▁wenige	-9.37789
▁position	-9.37803
lia	-9.37806
ay	-9.37884
▁zeitung	-9.37889
▁brachte	-9.37904
ng	-9.3802
qui	-9.38103
▁kal	-9.38113
▁institut	-9.38187
▁entwickelte	-9.38361
▁min	-9.38455
▁nähe	-9.38525
▁rück	-9.38578
▁findet	-9.3865
▁kein	-9.38699
▁somit	-9.38823
age	-9.38905
schutz	-9.38964
pt	-9.38996
gebäude	-9.39005
▁si	-9.39144
▁verlauf	-9.39152
▁vorsitzender	-9.39174
▁lebens	-9.39179
▁1963	-9.39185
fahren	-9.39215
▁hervor	-9.39219
auer	-9.39252
▁or	-9.39353
gh	-9.39387
▁fe	-9.39515
▁heiligen	-9.39526
▁regional	-9.39535
▁sy	-9.39616
▁cm	-9.39711
▁1967	-9.3972
▁bild	-9.39892
▁beendete	-9.39913
▁sehen	-9.39941
ska	-9.39986
▁entsprechend	-9.40002
ex	-9.40027
dorf	-9.40033
ministerium	-9.40111
ew	-9.40144
gabe	-9.40237
▁ehren	-9.40267
▁wissenschaft	-9.40453
▁größte	-9.40469
tro	-9.40503
▁folgten	-9.40551
wesen	-9.40553
▁50	-9.40621
wert	-9.40634
wirtschaft	-9.40638
▁mitglieder	-9.40661
▁will	-9.40727
az	-9.40739
▁flugzeug	-9.40766
▁liegen	-9.40828
▁tage	-9.40914
cken	-9.40921
80	-9.41108
stelle	-9.41209
europa	-9.41221
auch	-9.41265
▁ludwig	-9.41341
musik	-9.41343
▁heiratete	-9.41343
▁voll	-9.41346
▁hotel	-9.4138
▁"„	-9.41408
▁trainer	-9.4148
tru	-9.41577
anlage	-9.41797
behörde	-9.41845
▁1952	-9.41884
▁award	-9.41884
▁1920	-9.41898
mel	-9.4191
▁stätten	-9.4192
▁max	-9.42206
zentrum	-9.42342
▁1938	-9.42365
▁1946	-9.42436
ika	-9.42472
mittel	-9.42477
nah	-9.4256
▁blitz	-9.42608
▁sb	-9.42617
▁fahr	-9.42632
▁lehrer	-9.42688
ober	-9.42729
▁eng	-9.42919
team	-9.4294
▁dritten	-9.42967
▁is	-9.4297
▁hektar	-9.42986
▁texan	-9.42986
▁1965	-9.42989
▁regelmäßig	-9.4299
▁2020	-9.43025
halle	-9.431
▁th	-9.4326
▁zahl	-9.43297
▁bro	-9.43423
ham	-9.43439
▁christ	-9.43475
▁1948	-9.43544
▁1939	-9.43545
▁knapp	-9.43547
lat	-9.43594
ani	-9.43602
▁kn	-9.43628
▁mitarbeiter	-9.43825
ther	-9.43979
▁kampf	-9.4398
isierung	-9.43999
tik	-9.44018
last	-9.44019
schi	-9.44054
ari	-9.44091
▁1961	-9.44104
▁com	-9.44104
▁not	-9.44104
▁weiterhin	-9.44129
▁ernst	-9.44244
17	-9.44273
▁stil	-9.44335
dal	-9.44369
ville	-9.44453
all	-9.44537
▁aufgelistet	-9.44662
▁befinden	-9.44663
▁jean	-9.44711
legen	-9.44741
▁oft	-9.44759
gleich	-9.44766
▁zusammenarbeit	-9.4483
bra	-9.44866
▁*	-9.44882
das	-9.44919
neu	-9.4493
▁ortsteile	-9.44979
▁iii	-9.45038
scha	-9.45043
inger	-9.45052
▁lebt	-9.45089
▁ber	-9.4516
▁et	-9.45194
ura	-9.45625
▁italienische	-9.45633
▁lied	-9.4568
reg	-9.4579
▁cal	-9.45791
▁leipzig	-9.45795
▁männer	-9.45795
▁juden	-9.4601
▁br	-9.46031
▁kaiser	-9.46116
▁kor	-9.46126
tet	-9.46228
▁val	-9.46353
▁enthält	-9.46373
▁ihnen	-9.46413
▁mehreren	-9.46418
▁lassen	-9.4644
ris	-9.46508
ice	-9.46518
▁muss	-9.46576
dia	-9.46594
ellen	-9.4663
san	-9.46821
▁legte	-9.46921
▁stieg	-9.46943
institut	-9.46949
ada	-9.46952
▁theologie	-9.47
▁runde	-9.47293
▁motor	-9.47427
wasser	-9.47508
igung	-9.47524
▁verließ	-9.47607
▁finale	-9.47696
▁profi	-9.47761
ott	-9.47807
▁bildet	-9.4788
▁verkehrs	-9.48008
16	-9.48041
▁aller	-9.48052
förmig	-9.48094
▁1956	-9.48104
▁2021	-9.48114
zwischen	-9.48143
har	-9.48324
▁bur	-9.48335
▁entwickelt	-9.48417
halten	-9.48582
▁wollte	-9.48598
▁macht	-9.48606
▁mess	-9.48606
▁1925	-9.48691
▁landtag	-9.48752
titel	-9.48807
▁königsberg	-9.4885
▁flug	-9.48955
arbeiten	-9.49149
▁verbunden	-9.49275
▁1930	-9.4928
wissenschaften	-9.49318
▁christian	-9.49343
▁anlage	-9.49404
▁aufge	-9.4944
ore	-9.49508
▁namens	-9.49538
über	-9.49563
▁wirtschafts	-9.49687
nie	-9.49728
▁version	-9.49799
stätte	-9.49808
projekt	-9.49944
▁ges	-9.49964
licher	-9.50094
▁medaille	-9.50308
▁staatliche	-9.50441
▁kritik	-9.50535
uc	-9.50586
tisch	-9.50599
▁pre	-9.5073
folge	-9.50747
▁weiß	-9.50808
▁eu	-9.50812
11	-9.50887
▁x	-9.50888
fest	-9.50902
▁bahn	-9.5091
▁hall	-9.50981
▁nächsten	-9.51007
▁lediglich	-9.51059
▁daneben	-9.5106
▁1943	-9.51062
▁bas	-9.51065
▁technische	-9.51071
▁hermann	-9.51171
▁pol	-9.51196
▁umfasst	-9.51219
don	-9.5124
▁kol	-9.51285
sitz	-9.5131
▁bezeichnung	-9.51383
▁winter	-9.51464
▁uhr	-9.51484
▁hafen	-9.51518
“"	-9.51518
▁jährlich	-9.51661
▁bi	-9.51692
▁dafür	-9.51712
▁graf	-9.51825
ette	-9.51893
▁lief	-9.51898
ano	-9.51904
graben	-9.51974
▁gesamte	-9.52175
ino	-9.52185
.“	-9.52211
haft	-9.52267
▁1962	-9.52268
▁erwähnt	-9.52268
▁ausgetragen	-9.52268
▁1955	-9.52271
▁bürgermeister	-9.52301
öl	-9.52319
▁ur	-9.52375
war	-9.52424
bildung	-9.52441
▁pass	-9.52463
▁welches	-9.52486
▁geschäfts	-9.52529
▁stelle	-9.52629
stände	-9.52667
runde	-9.52709
oli	-9.52785
tus	-9.52786
▁junioren	-9.52809
▁fla	-9.52848
▁sk	-9.52889
▁regel	-9.53037
▁leitete	-9.53125
▁schutz	-9.53163
▁chi	-9.53199
▁stellen	-9.53264
▁lager	-9.53335
▁geplant	-9.53496
werke	-9.5351
▁lokal	-9.53514
▁alte	-9.53566
krieg	-9.53636
▁dis	-9.53663
forschung	-9.53684
▁mac	-9.53718
voll	-9.53797
▁vollständig	-9.53822
▁bad	-9.53959
ji	-9.53988
ney	-9.54027
hen	-9.54029
_	-9.54052
▁entfernt	-9.54108
▁hockey	-9.54108
▁1954	-9.54113
▁kommen	-9.54163
▁ersetzt	-9.54226
▁kre	-9.54266
44	-9.54285
▁george	-9.5431
itz	-9.54449
▁end	-9.54453
▁beste	-9.54506
q	-9.54555
▁schriftsteller	-9.54593
▁vertreter	-9.54597
25	-9.5462
90	-9.54678
▁kan	-9.54696
▁außen	-9.54717
▁1953	-9.54729
▁1947	-9.54733
▁1949	-9.54734
▁kur	-9.54736
▁hell	-9.54773
▁bill	-9.54781
▁stra	-9.54809
▁bauten	-9.54846
▁etwas	-9.54998
▁kind	-9.55006
▁all	-9.55021
leiter	-9.55077
▁fiel	-9.55097
▁wirkte	-9.55111
▁wechsel	-9.55219
▁bald	-9.5531
▁gmbh	-9.55354
▁bestritt	-9.55357
▁()	-9.55362
wä	-9.5537
▁dritte	-9.55381
▁sand	-9.55394
poli	-9.55397
12	-9.55487
▁cup	-9.55583
ide	-9.55653
zig	-9.55948
▁fernseh	-9.5597
▁mus	-9.55976
▁erwarb	-9.55985
durch	-9.55988
▁schlacht	-9.55991
yl	-9.5605
sto	-9.56057
▁tr	-9.56061
ht	-9.56084
qu	-9.5618
▁pan	-9.5621
▁at	-9.56255
▁open	-9.56261
▁sammlung	-9.56308
ria	-9.56384
▁gr	-9.56436
▁energie	-9.56556
▁charles	-9.5663
verband	-9.56721
▁tier	-9.5677
pri	-9.56787
cke	-9.56899
spielen	-9.56908
▁republik	-9.56918
ost	-9.56932
sprache	-9.56954
▁schwedische	-9.57003
▁einigen	-9.57009
uf	-9.57052
▁gal	-9.57096
rin	-9.57124
con	-9.57295
träger	-9.57296
▁england	-9.57312
bezirk	-9.57327
ep	-9.57394
95	-9.57401
▁sprach	-9.57405
mühle	-9.57456
gemeinschaft	-9.57513
▁typ	-9.57565
▁verliehen	-9.5759
fried	-9.57633
dra	-9.57634
schrift	-9.57653
gre	-9.57681
igkeit	-9.57716
▁sh	-9.57742
▁spiele	-9.57744
▁bach	-9.5777
mus	-9.57799
▁division	-9.57822
▁gar	-9.57851
▁vereins	-9.57872
▁gleichnamige	-9.57894
▁gestellt	-9.57898
60	-9.57948
▁albert	-9.57952
tur	-9.57981
▁sogenannte	-9.58008
▁fels	-9.58059
▁ter	-9.58131
fahr	-9.58158
▁erschienen	-9.58256
wie	-9.58269
▁hi	-9.58401
▁schrift	-9.58406
▁autor	-9.58407
▁länge	-9.58445
ida	-9.58463
▁unterstützt	-9.58539
▁1951	-9.58543
▁trotz	-9.58546
formation	-9.5855
▁dadurch	-9.58615
70	-9.58631
▁ernannte	-9.58697
tes	-9.58703
lis	-9.58717
ip	-9.58809
programm	-9.58838
▁sozial	-9.58841
wechsel	-9.58851
technik	-9.58859
▁philosophie	-9.58936
frei	-9.58937
▁besitzt	-9.58955
leb	-9.59053
▁hinzu	-9.59122
▁radio	-9.59187
▁1958	-9.59193
▁journalist	-9.5921
stellen	-9.59222
▁gre	-9.59254
▁hör	-9.59276
▁baden	-9.59311
▁stellt	-9.59379
nehmen	-9.594
gra	-9.59437
▁gelände	-9.59474
96	-9.59545
▁familien	-9.59548
ii	-9.59554
▁nor	-9.59681
▁bri	-9.59692
punkt	-9.59751
▁ly	-9.59752
▁mann	-9.59762
ap	-9.598
▁bre	-9.59805
herr	-9.59817
▁zwölf	-9.59842
▁kr	-9.5985
▁cdu	-9.60038
▁joseph	-9.60081
pu	-9.60143
com	-9.60151
tar	-9.60251
40	-9.60336
▁ch	-9.60355
▁solche	-9.60359
ón	-9.60417
versammlung	-9.6045
▁neuer	-9.60476
▁1959	-9.605
▁district	-9.605
▁vorhanden	-9.60501
▁monat	-9.60503
▁1924	-9.60505
▁sowjetische	-9.60568
lon	-9.60608
85	-9.60667
▁finanz	-9.60692
ble	-9.60699
hör	-9.60774
mark	-9.60787
anlagen	-9.60874
chel	-9.61077
▁produziert	-9.61082
▁strecke	-9.61085
▁bisher	-9.61088
▁parallel	-9.61162
▁spd	-9.61172
▁tal	-9.61188
schloss	-9.61191
▁trug	-9.61196
▁selten	-9.61272
▁geht	-9.61323
▁wohl	-9.61445
▁politik	-9.61456
▁schön	-9.6147
▁ei	-9.61487
▁tore	-9.6149
fo	-9.61497
▁erreichen	-9.61573
▁daten	-9.61593
port	-9.61616
▁folgen	-9.61631
▁elf	-9.6173
jährigen	-9.61778
▁american	-9.61857
yo	-9.61926
▁gewesen	-9.61938
tritt	-9.61955
▁ähnlich	-9.62119
▁berufen	-9.62168
minister	-9.62279
▁grenze	-9.62348
stil	-9.62417
!	-9.625
▁alexander	-9.625
▁1935	-9.62505
zeichen	-9.6251
▁22	-9.62592
▁bestehen	-9.62625
zo	-9.62655
ial	-9.62686
▁zeitschrift	-9.62701
ys	-9.62731
saal	-9.62747
bund	-9.62808
stück	-9.62814
kan	-9.62814
▁bank	-9.62846
tha	-9.62866
ire	-9.62924
▁umwelt	-9.62929
▁sprint	-9.62939
span	-9.62946
▁grand	-9.62954
▁hälfte	-9.63
tig	-9.63008
rot	-9.6301
pla	-9.63068
cia	-9.63082
▁zuletzt	-9.63176
▁zerstört	-9.63187
▁turnier	-9.63194
reihe	-9.63211
spiele	-9.63412
bruch	-9.6344
▁versch	-9.63645
▁forschung	-9.63784
▁1936	-9.63861
▁auftrag	-9.63897
ünde	-9.63918
win	-9.63937
pol	-9.64081
▁bahnhof	-9.6412
gerät	-9.64158
▁griechisch	-9.64186
▁breit	-9.64203
▁politische	-9.64203
uk	-9.64254
abteilung	-9.6432
echt	-9.6439
gebietes	-9.64486
ax	-9.64532
▁richard	-9.64542
▁werdegang	-9.6455
▁zentrum	-9.64659
▁besuch	-9.64796
ight	-9.64808
setzung	-9.64821
zeug	-9.64881
holz	-9.64939
▁betrieben	-9.64948
▁thema	-9.6504
▁club	-9.65076
▁fläche	-9.65116
▁(17	-9.65139
gan	-9.6515
▁wort	-9.65199
pfalz	-9.65232
▁gesch	-9.65274
▁bonn	-9.65336
▁bundesstaat	-9.65375
▁wettbewerb	-9.65391
13	-9.65574
▁trans	-9.65625
eur	-9.6564
theater	-9.6572
off	-9.65738
▁halle	-9.65751
ola	-9.65772
▁wuchs	-9.65781
▁firma	-9.65854
▁erbaut	-9.65864
▁ban	-9.65904
▁stellvertretend	-9.65925
ziehen	-9.65934
▁ben	-9.6595
▁david	-9.65971
▁bru	-9.6604
mme	-9.66095
erst	-9.66096
▁hilfe	-9.66141
▁louis	-9.6618
▁wi	-9.6622
▁studio	-9.66253
▁nr	-9.66301
▁öffentlich	-9.66357
entwicklung	-9.66433
kultur	-9.66437
trainer	-9.66452
hang	-9.66503
von	-9.66578
▁1957	-9.66629
▁silber	-9.6669
▁festival	-9.66698
▁orts	-9.66703
▁kle	-9.66773
▁russischen	-9.66864
elli	-9.6691
linie	-9.66946
▁ortsteil	-9.66966
▁top	-9.67011
▁wert	-9.67024
▁besten	-9.67058
familie	-9.67152
▁nu	-9.67175
staat	-9.67247
▁eck	-9.67259
flug	-9.67282
aff	-9.67308
vorpommern	-9.67329
dor	-9.6735
▁breite	-9.67356
72	-9.67458
▁bücher	-9.67495
93	-9.67575
▁ac	-9.6758
▁can	-9.67593
▁deshalb	-9.67656
▁beruf	-9.67672
-1	-9.67678
▁verlag	-9.67805
21	-9.67834
wettbewerb	-9.67873
▁also	-9.67926
ira	-9.67934
▁stadtteil	-9.67944
▁wichtige	-9.67957
kw	-9.67973
▁überwiegend	-9.68038
loh	-9.68043
▁saint	-9.68052
ins	-9.68156
▁basis	-9.68174
▁freiburg	-9.68182
▁feuer	-9.68295
▁späteren	-9.68377
▁rein	-9.68501
▁text	-9.68507
▁struktur	-9.68582
erweise	-9.68718
kräfte	-9.68749
▁kulturdenkmale	-9.68752
▁1900	-9.68772
dem	-9.68822
▁char	-9.68825
▁genau	-9.68839
wend	-9.68847
▁offen	-9.6889
▁mil	-9.68914
pel	-9.68961
ana	-9.68986
▁(1	-9.69086
ey	-9.69133
ät	-9.69204
ez	-9.69237
van	-9.69244
▁unternehmens	-9.69248
77	-9.69298
▁besitz	-9.69336
ate	-9.69372
▁industrie	-9.69445
▁besondere	-9.69472
▁mündet	-9.69473
▁south	-9.69475
▁vielen	-9.69571
sdorf	-9.69589
zel	-9.69619
23	-9.69656
▁200	-9.69737
▁les	-9.69752
nia	-9.69828
dig	-9.69837
unt	-9.69867
▁rand	-9.69901
jahr	-9.69951
▁prä	-9.70033
▁sprachen	-9.70036
▁anti	-9.70058
kreuz	-9.7007
▁laufe	-9.70173
▁hal	-9.70181
▁ausschließlich	-9.70196
gezogen	-9.70235
▁bauern	-9.70292
▁handels	-9.70294
▁meer	-9.70318
seitig	-9.70378
▁air	-9.70394
▁jazz	-9.70549
▁geist	-9.70609
▁promoviert	-9.70609
fach	-9.70667
▁oper	-9.70688
▁ortschaft	-9.70733
▁wind	-9.7075
lla	-9.70774
unternehmen	-9.70836
▁besatzung	-9.7084
▁verlegt	-9.70925
č	-9.70926
▁sowjetunion	-9.70926
▁beispielsweise	-9.70934
des	-9.71005
präsentantenhaus	-9.7102
▁früh	-9.71105
▁metern	-9.71139
▁verkauft	-9.71159
▁anna	-9.71169
bogen	-9.71209
beck	-9.71218
druck	-9.7128
▁vorstand	-9.71304
cu	-9.71323
▁wolf	-9.71323
▁sam	-9.71353
▁amerikanische	-9.71405
meter	-9.71438
▁gefunden	-9.71472
organisation	-9.71552
▁lebte	-9.71564
mecklenburg	-9.71568
▁fund	-9.71619
ative	-9.7162
").	-9.71658
▁eltern	-9.71666
fabrik	-9.71694
▁sogn	-9.71908
insel	-9.7193
▁mas	-9.71991
gehen	-9.72089
▁bal	-9.7219
▁los	-9.72338
▁eher	-9.72386
▁stuttgart	-9.72402
▁1923	-9.72408
0.000	-9.72453
▁verwaltungs	-9.72527
graph	-9.72544
fen	-9.72564
stell	-9.7257
teilung	-9.72686
▁königs	-9.72787
ace	-9.72983
▁bistums	-9.72994
tre	-9.73028
▁rock	-9.73068
▁pra	-9.73134
а	-9.73148
handel	-9.73259
ical	-9.73273
rennen	-9.73274
▁galt	-9.73303
▁musiker	-9.73303
▁fließt	-9.73328
▁unterstützung	-9.73334
geben	-9.73452
▁sah	-9.7347
▁akademie	-9.73562
well	-9.73617
uß	-9.73636
▁hielt	-9.73636
▁städte	-9.73724
▁lässt	-9.7374
wart	-9.73819
▁herr	-9.73824
stimmung	-9.73845
▁tom	-9.73881
chan	-9.73883
ú	-9.739
▁herren	-9.73904
wärts	-9.73905
blick	-9.73906
▁schwester	-9.73935
pr	-9.73965
▁dach	-9.73974
nischen	-9.74028
serie	-9.74065
▁gering	-9.74085
▁japan	-9.74126
gut	-9.74168
▁berliner	-9.7424
▁fre	-9.74251
▁hauptstadt	-9.7428
lü	-9.74333
▁abteilung	-9.74345
endorf	-9.74363
wiesen	-9.74399
▁wochen	-9.74456
▁21	-9.74476
turnier	-9.74648
▁hauptsächlich	-9.74658
▁kammer	-9.74676
▁mc	-9.74824
ance	-9.74853
▁unterstellt	-9.74918
station	-9.74928
▁geführt	-9.7503
▁wir	-9.75062
▁siedlung	-9.75082
▁doppel	-9.75085
▁35	-9.7512
▁geld	-9.75143
▁zer	-9.75154
haupt	-9.75228
namen	-9.7531
▁pfarr	-9.75333
▁linken	-9.75337
79	-9.75364
▁berufs	-9.75364
ér	-9.75391
▁geworden	-9.75421
▁amateur	-9.75422
kirchen	-9.75448
▁ak	-9.75496
▁grau	-9.75515
ata	-9.75516
kal	-9.75519
archi	-9.75552
witz	-9.75582
▁music	-9.75584
äum	-9.75609
▁eis	-9.75689
▁einfluss	-9.75808
rd	-9.75835
▁allein	-9.75852
zer	-9.75855
▁bord	-9.75886
▁song	-9.75947
mund	-9.76037
sc	-9.76046
berger	-9.76058
istische	-9.76095
▁steuer	-9.76148
▁begriff	-9.76155
▁fakultät	-9.7619
▁erweitert	-9.76191
häuser	-9.76202
▁opfer	-9.76207
leitung	-9.76217
ves	-9.76222
▁ze	-9.76231
br	-9.76242
▁politischen	-9.76334
hal	-9.76591
▁einmal	-9.7665
▁(15	-9.76732
shi	-9.76748
red	-9.76803
▁kom	-9.76881
▁laufbahn	-9.76884
▁sel	-9.76893
▁emp	-9.76905
fallen	-9.76919
istik	-9.7692
è	-9.76931
67	-9.76945
▁union	-9.76951
olo	-9.76964
▁para	-9.76966
▁1922	-9.76971
▁2022	-9.76979
▁otto	-9.76983
▁druck	-9.77075
▁denkmalliste	-9.7708
▁scha	-9.77268
dass	-9.77271
weile	-9.77306
▁sv	-9.77308
erin	-9.77332
▁main	-9.77366
takt	-9.77379
▁regisseur	-9.77397
▁bern	-9.77479
▁dresden	-9.77531
)"	-9.77548
lar	-9.77564
▁brasilien	-9.77747
▁ebenda	-9.77748
▁james	-9.77752
▁1929	-9.77752
▁rücktritt	-9.77757
▁geschaffen	-9.77783
▁besetzt	-9.77827
württemberg	-9.77856
out	-9.77865
82	-9.77885
low	-9.77935
arm	-9.77939
ali	-9.77989
legung	-9.78025
via	-9.78032
lingen	-9.78036
▁hel	-9.78085
▁60	-9.78129
ori	-9.78203
▁pfarrer	-9.78244
▁marine	-9.78275
tte	-9.78417
ech	-9.78494
▁liebe	-9.78527
lief	-9.78531
▁alfred	-9.78534
▁church	-9.78534
▁bietet	-9.7854
▁herzog	-9.78551
▁lind	-9.78604
▁aufbau	-9.78619
lam	-9.7862
▁suco	-9.78653
▁kleingebiet	-9.78713
schein	-9.78778
▁niederländische	-9.78794
hne	-9.78879
▁miss	-9.78914
gesang	-9.78949
kunde	-9.7897
▁anschluss	-9.78974
dt	-9.78996
▁institute	-9.78996
▁führung	-9.79051
vis	-9.79055
▁handlung	-9.79125
▁philipp	-9.79127
▁archiv	-9.79175
▁kleiner	-9.79206
netz	-9.7921
▁nutzung	-9.79253
▁fo	-9.79309
▁unmittelbar	-9.79328
▁südöstlich	-9.79332
▁lau	-9.79337
88	-9.79366
▁mehrfach	-9.79375
2)	-9.79418
regierung	-9.79458
89	-9.79486
gestellt	-9.79563
▁"(	-9.79708
ban	-9.7974
68	-9.79745
▁gro	-9.79823
schnitt	-9.79864
▁stamm	-9.79901
83	-9.80077
▁santa	-9.80105
▁herkunft	-9.80138
▁polen	-9.80166
haltung	-9.80168
▁medien	-9.80179
▁themen	-9.80184
par	-9.80206
bewegung	-9.80242
istischen	-9.80251
▁konzert	-9.80252
▁za	-9.80301
bank	-9.80484
▁world	-9.80498
▁programm	-9.80554
▁sil	-9.80601
▁70	-9.80619
ges	-9.80622
my	-9.80624
▁bio	-9.80628
000	-9.80641
eller	-9.80649
▁anteil	-9.80712
tier	-9.80758
sing	-9.80854
▁real	-9.80918
▁32	-9.80931
▁beträgt	-9.80934
▁abitur	-9.80936
▁1937	-9.8094
▁hätte	-9.80948
▁spät	-9.80976
liste	-9.80978
kraft	-9.81001
▁wein	-9.81043
museum	-9.81069
▁dra	-9.8107
▁linie	-9.81076
bb	-9.8109
schl	-9.81128
▁früher	-9.81134
tis	-9.81204
bri	-9.81215
gruppen	-9.81251
zent	-9.81259
zog	-9.81264
kopf	-9.81315
▁hy	-9.81316
arten	-9.81335
▁fried	-9.81355
ähr	-9.81464
▁frühen	-9.81464
▁mannschaften	-9.81484
gelegt	-9.81502
36	-9.81577
99	-9.81581
▁soldaten	-9.81583
▁med	-9.81655
▁relativ	-9.81748
vermutlich	-9.81749
▁unbe	-9.81782
ish	-9.81786
vel	-9.81828
▁bronze	-9.81828
eth	-9.81839
▁militärische	-9.81843
äs	-9.81878
▁sogar	-9.81922
▁inhalt	-9.81927
▁bibliothek	-9.81978
▁museum	-9.8198
▁kat	-9.81989
▁jeder	-9.81992
▁gruppen	-9.81996
▁möglichkeit	-9.82005
▁lü	-9.8201
▁zahlreichen	-9.82044
▁regen	-9.82077
ama	-9.82129
▁dreh	-9.82152
▁eingestellt	-9.82246
63	-9.82298
▁ep	-9.82359
kow	-9.82367
76	-9.82446
▁beschreibung	-9.82483
typ	-9.82488
▁minister	-9.82494
tage	-9.82509
▁mel	-9.82559
▁central	-9.82567
▁washington	-9.82567
▁umgebung	-9.82567
▁1932	-9.82571
▁besser	-9.82585
▁wirken	-9.82597
▁sachsen	-9.826
cul	-9.82603
gab	-9.82623
▁entlang	-9.82625
sie	-9.82759
▁arbeitet	-9.8287
uni	-9.8289
▁rhein	-9.82896
schluss	-9.829
▁bayerische	-9.82944
▁kongress	-9.8296
yn	-9.83032
▁regie	-9.83066
▁adel	-9.83075
ula	-9.83085
▁verantwortlich	-9.83102
▁kern	-9.83229
▁prozess	-9.83291
kandidat	-9.83394
▁komplett	-9.83395
▁rudolf	-9.83397
▁eröffnet	-9.83455
▁zeitpunkt	-9.8347
▁monate	-9.83491
sucht	-9.83504
▁größere	-9.83509
lichkeit	-9.83518
struktur	-9.83588
▁av	-9.83638
ual	-9.8365
97	-9.8371
▁wirtschaft	-9.8372
▁eigentlich	-9.83723
town	-9.83731
▁sollten	-9.8376
39	-9.83805
brücke	-9.83824
▁mag	-9.83841
rang	-9.83842
▁lake	-9.83917
vin	-9.83985
▁gymnasium	-9.84014
ordnung	-9.8406
▁fer	-9.84107
54	-9.8412
bro	-9.84125
▁grube	-9.84173
▁verband	-9.84209
▁zürich	-9.84227
▁übernommen	-9.84227
▁schleswig	-9.84227
handlung	-9.84306
98	-9.84334
▁elektro	-9.84362
gymnasium	-9.84444
▁jung	-9.84449
grenze	-9.8448
▁34	-9.84495
▁north	-9.84506
▁angriff	-9.84532
são	-9.84536
motor	-9.84543
92	-9.8457
▁rest	-9.84606
jährige	-9.84698
ran	-9.84718
▁star	-9.84764
64	-9.84814
gas	-9.8486
boot	-9.84878
▁kamera	-9.84977
kü	-9.84994
figur	-9.85037
▁schauspieler	-9.85048
▁orgel	-9.85063
▁unabhängig	-9.85065
▁australien	-9.85067
▁doktor	-9.85067
▁verbreitet	-9.85069
illa	-9.85073
▁1927	-9.85073
▁müller	-9.85167
phon	-9.85199
▁gewinn	-9.85267
ac	-9.85327
▁gross	-9.85427
row	-9.85452
28	-9.85474
66	-9.85555
▁mer	-9.85569
rum	-9.85593
bre	-9.85606
deutsch	-9.8561
37	-9.85636
▁stiftung	-9.8564
87	-9.85646
▁leo	-9.85687
ding	-9.8582
ziert	-9.85861
▁amsterdam	-9.85915
▁glocken	-9.85942
bus	-9.86061
app	-9.86107
gy	-9.86122
▁französisch	-9.86133
karriere	-9.86182
zone	-9.86206
49	-9.86239
gue	-9.86257
tätigkeit	-9.86338
essen	-9.8636
gon	-9.86404
▁dor	-9.86432
only	-9.8645
▁wild	-9.86453
▁flügel	-9.86465
▁fenster	-9.86484
▁qua	-9.86488
▁frank	-9.86532
nau	-9.86619
75	-9.86637
mäßig	-9.86666
▁jüngere	-9.86769
▁mexiko	-9.86769
▁aufstieg	-9.86769
▁christoph	-9.86769
▁eisen	-9.86772
▁1910	-9.86782
▁weltweit	-9.86816
will	-9.86824
dar	-9.86978
jahre	-9.86988
▁kiel	-9.86997
86	-9.86998
▁geb	-9.87009
nde	-9.87028
å	-9.87044
▁my	-9.87046
fenster	-9.87103
▁komposition	-9.87167
mor	-9.8718
for	-9.87181
hor	-9.87193
78	-9.87225
▁abend	-9.87243
▁symbol	-9.87286
prä	-9.87295
35	-9.87372
grün	-9.87409
▁bewegung	-9.87414
▁kü	-9.87509
▁jungen	-9.87573
▁waffen	-9.87586
felder	-9.87603
ø	-9.87631
▁türkei	-9.87631
▁verfügung	-9.87631
▁daniel	-9.87638
▁high	-9.87641
rock	-9.87651
▁1,	-9.87779
▁klub	-9.87796
ließ	-9.87809
wohn	-9.87954
▁ortschaften	-9.8798
▁lebten	-9.88001
din	-9.88063
sburg	-9.88063
flügel	-9.88119
▁desselben	-9.88133
▁gerade	-9.88181
markt	-9.88208
▁debüt	-9.88261
▁stück	-9.88297
find	-9.88315
wissenschaft	-9.88328
▁bezirk	-9.88426
wick	-9.88499
▁1934	-9.88501
▁söhne	-9.88501
▁vorgänger	-9.88502
▁nordöstlich	-9.88507
▁vertrat	-9.88508
▁1914	-9.88512
▁oberst	-9.8854
▁schwerpunkt	-9.88564
▁op	-9.88584
one	-9.88621
57	-9.8863
nden	-9.88695
▁wahrscheinlich	-9.88697
prüfung	-9.88824
▁dom	-9.88896
▁bildete	-9.88965
47	-9.89021
stab	-9.89084
▁80	-9.89121
änder	-9.89186
▁forst	-9.89186
wir	-9.89271
▁wiener	-9.89274
▁kopf	-9.89302
▁wichtigste	-9.89472
▁betriebs	-9.89503
▁lübeck	-9.89507
für	-9.89527
▁italienischen	-9.89549
▁langen	-9.89581
▁zweiter	-9.89598
▁bö	-9.89666
▁teilnehmer	-9.89697
grad	-9.89701
▁größe	-9.89754
▁parlament	-9.89763
kampf	-9.89769
▁innen	-9.89782
lett	-9.89812
27	-9.89903
74	-9.8998
▁mir	-9.90074
▁artikel	-9.90102
▁maler	-9.90155
ations	-9.90156
▁win	-9.90163
hy	-9.90238
geschoss	-9.90255
▁trägt	-9.90263
▁betrug	-9.90264
net	-9.90276
▁schied	-9.90286
▁englisch	-9.90306
▁royal	-9.90319
▁schweden	-9.90328
▁fern	-9.90343
▁chef	-9.90351
▁punkt	-9.90378
ova	-9.90444
fang	-9.90449
24	-9.90473
▁strom	-9.90482
partei	-9.90506
schicht	-9.90513
▁hol	-9.90536
51	-9.90544
▁ö	-9.90557
rik	-9.90594
verwaltung	-9.90627
kapelle	-9.9064
gewicht	-9.90651
▁abschnitt	-9.90685
▁bay	-9.90704
▁sat	-9.90718
garten	-9.9073
▁ring	-9.90732
▁schwe	-9.90761
▁amts	-9.90808
▁studenten	-9.90958
▁fehl	-9.90967
▁cu	-9.91042
wahl	-9.91064
▁verfasste	-9.91113
▁empfing	-9.91156
inclu	-9.91162
▁1921	-9.91164
ili	-9.91187
▁state	-9.91189
▁red	-9.91192
▁aufgaben	-9.91199
▁super	-9.91214
atur	-9.91242
▁glas	-9.91244
west	-9.91245
▁flach	-9.91279
▁machen	-9.91285
▁camp	-9.91302
▁durchgeführt	-9.91306
▁geschlossen	-9.91312
▁china	-9.91342
hagen	-9.91355
▁ä	-9.91362
▁förder	-9.91405
mauer	-9.91415
fassung	-9.91417
56	-9.91462
▁ken	-9.91481
▁licht	-9.91534
räume	-9.91542
akademie	-9.91559
▁gewinnen	-9.91689
▁line	-9.91701
▁don	-9.91735
kin	-9.91743
nik	-9.91752
▁braun	-9.91778
kette	-9.91815
mont	-9.91816
graf	-9.91832
viertel	-9.91856
_1	-9.91874
▁90	-9.91889
▁verkauf	-9.91911
▁=	-9.91972
▁chicago	-9.92057
▁stahl	-9.92078
▁protest	-9.92085
61	-9.92119
▁heutige	-9.92162
ique	-9.92198
stehende	-9.92246
▁kino	-9.92279
schiffe	-9.92395
dach	-9.92409
▁organ	-9.92425
ld	-9.92453
▁video	-9.92478
án	-9.92501
45	-9.92622
42	-9.92698
▁erz	-9.9278
▁wand	-9.92882
▁eva	-9.92889
▁altar	-9.92917
wachsen	-9.92949
▁außer	-9.92957
▁genommen	-9.92966
▁rumänische	-9.92966
81	-9.92969
dollar	-9.92971
▁dennoch	-9.9298
▁links	-9.92999
pat	-9.93042
▁bekam	-9.93065
▁seitdem	-9.9309
▁einzelnen	-9.9313
▁umgeben	-9.9317
69	-9.9328
siedlung	-9.93371
2.	-9.93379
laden	-9.93391
leistung	-9.93409
▁endete	-9.93421
bur	-9.93437
version	-9.93542
ico	-9.9365
▁kraft	-9.93711
▁erfolge	-9.93756
▁persönlich	-9.93871
▁verwendung	-9.93884
▁düren	-9.93889
▁brand	-9.93898
▁internet	-9.93929
enburg	-9.93992
och	-9.94091
▁klassische	-9.94141
▁rf	-9.94192
▁reise	-9.94206
wehr	-9.94234
▁verfahren	-9.94345
▁vers	-9.94353
fu	-9.94388
▁zweimal	-9.94436
▁rie	-9.94437
▁19	-9.94469
let	-9.94612
unk	-9.94618
stel	-9.94626
wang	-9.9465
line	-9.94698
leute	-9.94717
lieb	-9.94736
▁bildhauer	-9.94809
▁society	-9.94809
▁priesterweihe	-9.9481
▁klavier	-9.94812
▁bremen	-9.94823
▁wolfgang	-9.94828
07	-9.94829
▁südlichen	-9.94847
▁historisch	-9.94847
▁salzburg	-9.94864
▁1919	-9.94877
▁mont	-9.94893
aca	-9.94898
▁anzu	-9.94912
kra	-9.94952
▁person	-9.94958
▁gehörten	-9.94995
▁bos	-9.95021
werte	-9.95144
▁vierten	-9.95203
▁unterlag	-9.95213
▁verloren	-9.95251
plätze	-9.9531
▁quer	-9.95346
▁sach	-9.95369
fluss	-9.95425
▁live	-9.95439
geführt	-9.95476
cup	-9.95482
▁folgt	-9.9559
ruf	-9.95604
/3	-9.9563
▁aktuelle	-9.95744
▁erhoben	-9.95745
▁nördlichen	-9.9575
ktion	-9.95751
▁blüten	-9.95761
▁1918	-9.95765
gänge	-9.95777
▁zunehmend	-9.95803
,8	-9.95847
▁vergleich	-9.95856
▁kohl	-9.95857
▁walter	-9.95912
orte	-9.95954
▁instrument	-9.95966
84	-9.95972
▁bü	-9.9605
ons	-9.96068
rest	-9.96106
▁gemeinden	-9.96123
ux	-9.96179
▁revolution	-9.96265
▁eisenbahn	-9.96286
▁verfügt	-9.96339
▁king	-9.96349
▁gra	-9.96358
▁cam	-9.9638
oper	-9.96536
bis	-9.96556
▁transport	-9.96578
brunn	-9.96586
▁kalk	-9.96599
farbe	-9.96625
▁geprägt	-9.96687
▁sammel	-9.967
füllt	-9.96732
▁mein	-9.96772
bericht	-9.96851
klärung	-9.97196
llo	-9.97227
▁traf	-9.97232
könig	-9.97267
ea	-9.97288
▁zugleich	-9.9732
▁geo	-9.97323
agen	-9.97334
▁roten	-9.97355
▁andreas	-9.97388
▁unterschied	-9.974
setzen	-9.97423
▁os	-9.97448
höfe	-9.9745
▁grenz	-9.97594
▁reicht	-9.97596
▁jakob	-9.9764
westfalen	-9.97645
▁organisiert	-9.97649
▁weitgehend	-9.97662
▁kontakt	-9.97663
produktion	-9.97666
▁versuchte	-9.97728
01	-9.97737
gegangen	-9.9774
▁nacht	-9.97793
▁basketball	-9.97854
71	-9.97875
▁spe	-9.97887
▁fanden	-9.98097
dessen	-9.98172
blatt	-9.9824
▁krankenhaus	-9.98247
▁you	-9.98248
▁tur	-9.98253
teile	-9.98321
heute	-9.98343
verbot	-9.98388
▁bot	-9.98395
▁farb	-9.98413
▁eich	-9.98455
fläche	-9.98461
▁richter	-9.98473
▁mussten	-9.9854
▁23	-9.98556
▁offizier	-9.98568
▁verläuft	-9.98601
texas	-9.98602
spruch	-9.98603
met	-9.9863
▁körper	-9.98636
▁verbrachte	-9.98641
yer	-9.98659
▁tat	-9.987
▁fünfte	-9.98708
▁kurze	-9.98787
ttl	-9.98868
▁ci	-9.98885
▁gene	-9.98968
lag	-9.98969
sprachen	-9.99008
▁evangelische	-9.99008
schichten	-9.99029
▁private	-9.99128
licht	-9.99187
qua	-9.99235
▁gl	-9.99279
stiftung	-9.99293
▁auszeichnungen	-9.99304
▁mittler	-9.99378
41	-9.99391
▁garten	-9.99392
▁original	-9.9945
▁ham	-9.99468
▁standard	-9.99477
fund	-9.99483
▁petr	-9.995
29	-9.99542
▁großbritannien	-9.99572
▁gewalt	-9.99573
▁russland	-9.99573
▁ermöglicht	-9.99601
▁größeren	-9.99611
▁idee	-9.99737
▁rosen	-9.99739
▁quellen	-9.99781
▁nhl	-9.99796
loge	-9.99807
sehen	-9.99876
▁gegeben	-9.99934
▁best	-10.0004
22	-10.0006
▁michel	-10.0006
▁eingeführt	-10.0007
ppen	-10.0008
▁wall	-10.0011
gl	-10.0012
cent	-10.0015
▁wiederum	-10.0021
ack	-10.0021
▁beschäftigt	-10.0023
▁hart	-10.0025
gna	-10.0033
▁wei	-10.0034
▁han	-10.0041
oro	-10.0042
▁45	-10.0045
lehrer	-10.0045
ings	-10.0054
gebietsabtretung	-10.0055
ă	-10.0055
▁station	-10.0056
▁tempel	-10.006
▁zusammenhang	-10.0061
94	-10.0067
▁plan	-10.007
pen	-10.0071
▁ausgabe	-10.0072
▁herz	-10.0073
▁basel	-10.0075
▁sar	-10.0077
▁fisch	-10.0079
phy	-10.0079
▁würde	-10.0081
▁blau	-10.0086
33	-10.0086
reise	-10.009
verbandes	-10.0092
▁fr	-10.0097
65	-10.0098
sweise	-10.01
▁ap	-10.0104
▁höhen	-10.0112
▁ich	-10.0113
iden	-10.0123
anstalt	-10.0126
läufer	-10.0128
▁weißen	-10.0129
marsch	-10.0133
▁landschafts	-10.0135
▁unge	-10.0149
▁1928	-10.0155
▁kanada	-10.0156
▁führen	-10.0158
▁mu	-10.0161
▁ihres	-10.0162
▁förderung	-10.0162
▁ruf	-10.0163
▁rheinland	-10.0167
▁senat	-10.017
▁mari	-10.0172
▁veranstaltung	-10.0177
dis	-10.0182
▁vertreten	-10.0186
▁aufnahme	-10.0193
zin	-10.0202
chor	-10.0207
pl	-10.0211
▁kapelle	-10.022
hilfe	-10.0225
▁kron	-10.0227
▁bilden	-10.0228
58	-10.0231
▁port	-10.0234
▁verkehr	-10.0235
besitz	-10.0236
szene	-10.0238
▁schnitt	-10.0241
maß	-10.0242
▁bundesliga	-10.0242
▁villa	-10.0244
26	-10.0245
▁einwohnern	-10.0245
▁landkreise	-10.0253
▁spanien	-10.0254
▁mut	-10.0256
▁anton	-10.0257
sicherheit	-10.0261
▁bestandteil	-10.0271
▁junge	-10.0277
zahlen	-10.0277
▁standort	-10.028
▁akt	-10.0284
▁weise	-10.0285
▁müssen	-10.0289
flu	-10.0289
▁indem	-10.0291
▁traditionell	-10.0296
▁königlich	-10.03
▁sprecher	-10.0304
▁orte	-10.0305
av	-10.0306
▁moderne	-10.0308
▁kosten	-10.0309
▁regierungs	-10.0324
zehn	-10.033
bistum	-10.033
▁on	-10.0334
tour	-10.0336
38	-10.0345
manuel	-10.0351
▁entschied	-10.0355
▁records	-10.0355
▁weihbischof	-10.0355
▁heidelberg	-10.0355
▁kanton	-10.0361
▁presse	-10.0364
▁ew	-10.0374
▁kaum	-10.0393
kre	-10.0397
loch	-10.0399
▁handel	-10.0401
73	-10.0403
▁auszeichnung	-10.0404
▁stammen	-10.0406
48	-10.0408
▁stern	-10.0409
mess	-10.041
▁gingen	-10.0417
fra	-10.042
falls	-10.0424
▁verbreitung	-10.0424
kunst	-10.0425
▁medizinische	-10.0431
verfahren	-10.0433
länge	-10.0433
direktor	-10.0433
▁gebracht	-10.0436
▁gelb	-10.0439
▁katholische	-10.0443
kaufmann	-10.0445
hauses	-10.0449
kolleg	-10.0453
pflanz	-10.0453
aga	-10.0456
ppe	-10.0457
▁academy	-10.0457
▁entstehung	-10.0457
▁landtagswahl	-10.0457
▁spendete	-10.0457
▁1931	-10.0458
▁1926	-10.0458
▁1907	-10.0458
▁rückkehr	-10.0458
▁pr	-10.0459
▁gemacht	-10.0464
▁nimmt	-10.0465
▁luftwaffe	-10.0465
post	-10.0473
winkel	-10.0475
▁herrschaft	-10.048
bal	-10.048
▁punkte	-10.0487
▁ebene	-10.0487
▁maß	-10.0491
▁nachfolge	-10.0503
▁bataillon	-10.0506
alter	-10.0509
statt	-10.0527
pal	-10.0528
zie	-10.0536
trop	-10.0537
▁fro	-10.0537
bücher	-10.0537
▁zuständige	-10.054
isse	-10.0547
lose	-10.0554
▁spielt	-10.0557
▁26	-10.0558
▁stimmen	-10.0559
▁association	-10.056
▁hannover	-10.056
▁promotion	-10.056
▁fußballspieler	-10.0565
▁darstellung	-10.0565
rode	-10.0568
▁nordwestlich	-10.0572
niedersächsische	-10.0573
▁lauf	-10.0575
arch	-10.0575
rates	-10.0576
fels	-10.0581
ox	-10.0583
▁südwestlich	-10.0588
▁ungefähr	-10.0591
gro	-10.0593
moor	-10.0595
▁bus	-10.0598
▁länger	-10.0601
▁sonder	-10.0601
heil	-10.0603
ala	-10.0604
▁rektor	-10.0608
▁geschrieben	-10.0612
nitz	-10.0613
schul	-10.0625
grab	-10.0626
field	-10.0635
gli	-10.0636
▁bor	-10.0639
▁versuch	-10.0642
zeiten	-10.0643
lock	-10.0644
regiment	-10.0644
▁soziale	-10.0644
groß	-10.0645
politik	-10.0646
▁play	-10.0647
▁ausland	-10.0654
tech	-10.0659
kanal	-10.0659
▁1911	-10.0666
pflicht	-10.0669
▁zeigen	-10.0669
▁hessen	-10.0669
▁architektur	-10.0671
▁salsa	-10.0674
▁dahin	-10.0681
▁schmal	-10.0682
hard	-10.0683
▁staat	-10.0684
▁elisabeth	-10.0686
▁höchsten	-10.0686
▁minuten	-10.0687
▁künstlerische	-10.0692
linien	-10.0693
uck	-10.0696
itu	-10.0703
▁solo	-10.0707
thi	-10.0708
▁(†	-10.0712
ef	-10.0713
▁politisch	-10.0713
▁goldene	-10.0732
▁straf	-10.0732
aw	-10.0734
▁lei	-10.0734
sprech	-10.0743
album	-10.0751
▁front	-10.0752
arzt	-10.076
▁sur	-10.0761
maschine	-10.0766
▁denkmal	-10.0768
▁il	-10.0769
▁ordens	-10.0769
blätter	-10.077
mitkonsekratoren	-10.077
▁düsseldorf	-10.077
▁umbenannt	-10.077
▁josef	-10.077
▁außerhalb	-10.077
kapital	-10.0771
▁fra	-10.0771
▁ehefrau	-10.0771
▁herbst	-10.0771
▁diverse	-10.0772
▁sollen	-10.0774
▁debütierte	-10.0776
▁fritz	-10.0777
▁niger	-10.0778
▁gott	-10.0781
▁heeres	-10.0788
städt	-10.0789
▁verwaltung	-10.0797
▁begleitet	-10.0801
43	-10.0806
▁fri	-10.0811
our	-10.0812
▁abzu	-10.0814
▁brücke	-10.0818
▁aufgeführt	-10.082
bor	-10.082
▁kleinere	-10.0821
▁paar	-10.0828
▁innere	-10.0828
vent	-10.0833
▁angelegt	-10.0834
▁interesse	-10.0847
▁zeigte	-10.0848
▁großer	-10.085
ith	-10.0853
geschäft	-10.086
▁kirch	-10.0861
▁160	-10.0861
▁mittleren	-10.0862
▁präsidenten	-10.0864
▁anfangs	-10.0875
plattform	-10.0876
▁gewonnen	-10.0876
▁konstitution	-10.0876
▁moskau	-10.0876
▁gregor	-10.0877
▁nordrhein	-10.0878
schließen	-10.0878
anne	-10.0879
jan	-10.088
▁denkmalschutz	-10.0889
▁weist	-10.0893
ständig	-10.0893
▁konzept	-10.0894
hab	-10.0901
wan	-10.0902
▁geheim	-10.0904
wind	-10.0906
charts	-10.0911
▁mühle	-10.0914
▁hügel	-10.0917
▁mittelalter	-10.0928
ob	-10.0929
merk	-10.0936
ctor	-10.0938
verbände	-10.094
▁schauspielerin	-10.0942
▁heim	-10.0942
55	-10.0943
▁erd	-10.0945
▁schulen	-10.0952
▁partie	-10.0969
▁produkt	-10.0969
zweig	-10.0973
ato	-10.0974
▁rumänien	-10.0984
▁könnte	-10.0984
▁verstarb	-10.0984
▁biografie	-10.0984
▁wende	-10.0991
▁englischen	-10.0993
▁hintergrund	-10.0996
▁gesetz	-10.0997
▁schu	-10.1001
lé	-10.1002
▁wer	-10.1005
gesetz	-10.1008
▁gründen	-10.1009
▁gespielt	-10.101
▁schiffs	-10.1011
▁dient	-10.1013
asien	-10.102
▁weiterer	-10.102
▁lieder	-10.1023
▁darin	-10.1026
▁linien	-10.1027
▁ruhr	-10.1032
bad	-10.104
ffer	-10.1044
▁generation	-10.1051
torf	-10.1055
oc	-10.1059
franc	-10.1062
mut	-10.1068
▁brüder	-10.1072
▁amx	-10.1074
▁bon	-10.1077
reform	-10.1079
festival	-10.1081
züge	-10.1081
denkmal	-10.1082
▁frage	-10.1092
▁neubau	-10.1092
▁üblich	-10.1092
;*	-10.1095
▁black	-10.1095
▁hergestellt	-10.1095
wagen	-10.1097
schutzgebiet	-10.1105
▁28	-10.1112
09	-10.1116
▁eingerichtet	-10.1126
▁beschäftigte	-10.1128
far	-10.113
ausbildung	-10.1137
▁web	-10.1139
jahren	-10.1144
omb	-10.1147
schau	-10.1148
▁hei	-10.1152
▁anderer	-10.1176
▁filme	-10.1176
▁bauwerk	-10.1176
▁katholischen	-10.1177
▁dicht	-10.1187
mals	-10.119
bat	-10.1195
wissenschaftler	-10.1197
▁ausstellung	-10.1199
block	-10.1199
▁territorium	-10.1202
▁alexandr	-10.1202
▁brandenburg	-10.1203
speicher	-10.1203
stärke	-10.1204
▁tradition	-10.1205
▁fuß	-10.1211
▁che	-10.1214
,6	-10.1222
▁früheren	-10.1224
▁dortigen	-10.1241
▁iv	-10.1243
thal	-10.1243
▁ergebnis	-10.1244
▁wesentlich	-10.1248
▁schl	-10.125
▁anne	-10.1252
aktion	-10.1253
ella	-10.1254
▁cd	-10.1257
tta	-10.1262
▁(3	-10.1262
▁zuständig	-10.1263
▁nachbar	-10.1269
▁stock	-10.1271
kehr	-10.1282
öll	-10.1283
hoff	-10.1289
▁ruh	-10.1289
▁sor	-10.1291
vier	-10.1302
▁mindest	-10.1306
siehe	-10.1312
]	-10.1313
gegliedert	-10.1313
▁situation	-10.1313
▁venedig	-10.1313
▁bischofsweihe	-10.1313
wälder	-10.1314
bedingungen	-10.1314
▁schaffte	-10.1314
▁1912	-10.1315
▁sicherheits	-10.1319
gebirge	-10.132
▁saß	-10.1322
flächen	-10.1325
▁bildung	-10.1327
kraftwerk	-10.1328
91	-10.1333
etz	-10.1336
▁hit	-10.1336
rio	-10.134
pä	-10.1341
kor	-10.1351
▁sub	-10.1351
▁sächsische	-10.1355
mu	-10.1371
üll	-10.1371
▁einzigen	-10.1381
dauer	-10.1384
pläne	-10.1392
gard	-10.1397
parti	-10.1408
▁lö	-10.1414
▁eg	-10.1415
▁charakter	-10.1417
körper	-10.1422
faktor	-10.1424
▁reederei	-10.1426
▁dänemark	-10.1426
▁jeweilige	-10.1426
▁besaß	-10.1426
▁margaret	-10.1426
▁auszu	-10.1426
▁gestaltet	-10.1427
▁frühjahr	-10.1427
▁1913	-10.1427
▁center	-10.143
anten	-10.1431
▁geographie	-10.1432
wertung	-10.1436
are	-10.1437
▁fischer	-10.1441
atom	-10.1444
▁rechten	-10.1445
▁vergeben	-10.1446
▁33	-10.1449
▁wagen	-10.1454
schwe	-10.1454
▁saisonende	-10.1454
tanz	-10.1457
▁ähnliche	-10.1459
▁kap	-10.1462
hänge	-10.1463
▁nationale	-10.1466
▁architekten	-10.1473
▁promovierte	-10.1475
bauten	-10.1479
▁bel	-10.148
▁stau	-10.1492
▁klar	-10.1494
▁klima	-10.1497
▁trag	-10.1504
▁suffragan	-10.1539
▁ritter	-10.1539
▁aufgelöst	-10.1539
▁eduard	-10.1539
▁smith	-10.154
rwiegend	-10.154
▁befördert	-10.154
▁mineral	-10.154
▁josé	-10.154
▁spitze	-10.154
▁musikalische	-10.1541
▁gebildet	-10.1541
▁normal	-10.1543
bare	-10.1544
▁klaus	-10.1546
vertrag	-10.1548
▁aufführung	-10.1549
▁neues	-10.155
way	-10.1551
geschlagen	-10.1551
time	-10.1552
▁tragen	-10.1565
ect	-10.1565
▁aktion	-10.157
gericht	-10.1589
var	-10.1592
▁scho	-10.1601
▁aufgestellt	-10.1607
▁arbeiter	-10.1616
ple	-10.1616
grä	-10.1623
▁pflege	-10.1624
▁ortes	-10.1624
litz	-10.1639
▁offiziell	-10.164
▁operation	-10.1644
▁sänger	-10.1646
▁religion	-10.1647
▁spanischen	-10.1648
▁vorder	-10.1651
deutschen	-10.1654
▁zivil	-10.1654
händler	-10.1654
▁kennzeichen	-10.1654
▁gefangen	-10.1655
schlüsse	-10.1655
▁gedenk	-10.1655
▁übertragen	-10.1655
kommission	-10.1655
kammer	-10.1657
▁freund	-10.1657
▁angaben	-10.1657
spitze	-10.1658
▁fuhr	-10.1658
schläge	-10.1659
osa	-10.1659
ami	-10.1661
▁ländern	-10.1664
▁ergebnisse	-10.1664
▁spring	-10.1665
iva	-10.1667
▁diözese	-10.1668
▁entdeckt	-10.1672
▁ah	-10.1672
ball	-10.1674
oder	-10.1676
▁bekannte	-10.1679
▁bereit	-10.1679
owa	-10.168
▁oberen	-10.1688
▁tanz	-10.1689
▁cra	-10.1691
▁angehörige	-10.1691
fällen	-10.1703
▁entscheidung	-10.1708
▁ensemble	-10.1708
mond	-10.1708
▁technik	-10.1714
rolle	-10.1718
gau	-10.1723
ão	-10.1729
stufe	-10.1734
▁ufer	-10.1742
▁material	-10.1745
▁älteste	-10.1746
▁mau	-10.1749
▁tv	-10.1753
gestalt	-10.1757
kontroll	-10.1759
tic	-10.1768
▁teilnahme	-10.1769
▁unbekannt	-10.1771
▁verpflichtet	-10.1771
▁belgische	-10.1771
▁berichtet	-10.1772
▁öffentlichkeit	-10.1773
offizier	-10.1775
theorie	-10.1775
industrie	-10.1775
vid	-10.1776
▁städtische	-10.1778
▁geweiht	-10.1789
▁werde	-10.1795
▁emil	-10.1797
▁27	-10.1799
▁alters	-10.18
trieb	-10.1804
▁wäre	-10.1806
akt	-10.1807
▁reform	-10.1809
eiß	-10.1819
portal	-10.182
top	-10.182
ionen	-10.1821
▁gehen	-10.1831
▁setzt	-10.1835
auswahl	-10.1836
▁wales	-10.1839
▁grad	-10.1844
ong	-10.1845
▁wappen	-10.1845
uz	-10.1852
fal	-10.1858
▁hard	-10.1865
seit	-10.187
▁tar	-10.1874
▁tele	-10.1877
studium	-10.1879
russ	-10.1883
▁gezeigt	-10.1888
▁kommunal	-10.1888
▁service	-10.1888
▁bestätigt	-10.1888
▁schwierig	-10.1889
▁zuschauer	-10.1889
▁bayern	-10.189
flugzeug	-10.1897
leh	-10.19
–16	-10.1901
▁mol	-10.1902
▁mehrheit	-10.1906
lig	-10.191
32	-10.1911
▁bühnen	-10.1912
▁markus	-10.1912
landes	-10.1914
oma	-10.1914
▁angeles	-10.1915
▁hinweis	-10.1916
ofen	-10.1918
arbeiter	-10.1919
glück	-10.1919
▁sha	-10.1925
▁befasste	-10.194
kol	-10.1942
▁sol	-10.1943
▁jene	-10.1943
▁beschrieben	-10.1951
▁kri	-10.1956
▁gesprochen	-10.1964
▁eb	-10.1965
▁hill	-10.1971
▁oben	-10.1981
ç	-10.1981
▁grünen	-10.1983
ografie	-10.1984
alität	-10.1984
ritz	-10.1985
▁entfernung	-10.2007
▁millimeter	-10.2007
▁gustav	-10.2007
▁gegner	-10.2007
▁puerto	-10.2008
▁positiv	-10.2008
▁1901	-10.2008
▁verlassen	-10.2008
▁maschinen	-10.2008
konzern	-10.2009
tafel	-10.2009
stoß	-10.201
▁widerstand	-10.201
ora	-10.2011
▁dagegen	-10.2012
äge	-10.2012
▁pfarrkirche	-10.2012
▁unterhalb	-10.2021
rechte	-10.2026
▁rio	-10.2034
▁label	-10.2035
▁diplom	-10.2036
tau	-10.2037
▁magazin	-10.2042
kant	-10.2045
▁trau	-10.2049
▁bedeutende	-10.2049
sand	-10.205
▁übrigen	-10.2066
ersdorf	-10.2069
▁150	-10.2071
▁komponist	-10.2072
▁arten	-10.2073
fan	-10.2074
cle	-10.2076
fälle	-10.2077
▁wach	-10.2078
▁flotte	-10.2089
▁schluss	-10.2098
▁heide	-10.2108
tür	-10.2114
hütte	-10.2121
▁mary	-10.2122
▁1903	-10.2128
▁portugal	-10.2128
▁australische	-10.2128
▁erstreckt	-10.2128
▁friedens	-10.2133
ingenieur	-10.214
platte	-10.2141
physik	-10.2142
prozess	-10.2143
ungarisch	-10.215
▁vorher	-10.2154
elf	-10.2155
pre	-10.216
eishockeyspieler	-10.2168
▁rü	-10.2173
▁jagd	-10.2178
best	-10.2181
▁verkaufte	-10.2192
▁passagiere	-10.2197
▁rücken	-10.2203
(	-10.2207
borg	-10.2212
▁baum	-10.2217
horn	-10.2221
stimme	-10.2223
sender	-10.2224
ging	-10.2227
▁partner	-10.2236
▁bronzemedaille	-10.2237
musiker	-10.2245
rseits	-10.2248
▁erheblich	-10.225
▁merkmale	-10.225
▁kanadische	-10.225
▁israel	-10.2252
▁regionalliga	-10.2252
▁unterschrieb	-10.2253
▁1899	-10.2256
▁zweck	-10.2256
▁polnischen	-10.2256
▁estnische	-10.2257
renz	-10.2259
äus	-10.226
fußball	-10.2266
,7	-10.2269
division	-10.2269
liches	-10.2273
rück	-10.2276
name	-10.2276
abwehr	-10.2286
boote	-10.2291
▁weltcup	-10.2293
▁wirkung	-10.2294
istin	-10.2296
▁aufgabe	-10.2298
eisen	-10.2304
▁plätze	-10.2307
▁führten	-10.2316
▁bezirks	-10.2327
▁wahlen	-10.2329
▁stift	-10.2331
linger	-10.2347
▁qui	-10.2355
konferenz	-10.236
ligen	-10.2363
▁men	-10.2371
▁engagement	-10.2373
▁nürnberg	-10.2373
▁rundfunk	-10.2373
▁united	-10.2373
▁niedrig	-10.2373
▁jacob	-10.2374
maßnahmen	-10.2374
▁fertiggestellt	-10.2374
▁straßenbahn	-10.2377
▁grenzt	-10.2382
modell	-10.2389
▁untersucht	-10.2397
▁anders	-10.2399
▁mainz	-10.2403
star	-10.2409
lip	-10.2431
phase	-10.2432
▁mos	-10.2432
chef	-10.2439
▁weltkriegs	-10.2439
lied	-10.2446
▁green	-10.2446
▁architekt	-10.2449
▁ältere	-10.2451
▁metall	-10.2457
eine	-10.2458
▁kg	-10.2462
▁liefer	-10.2473
zell	-10.2476
mitglied	-10.2477
vat	-10.2479
▁antike	-10.2492
▁phil	-10.2492
leutnant	-10.2497
▁theodor	-10.2498
▁durchmesser	-10.2498
▁fernsehserie	-10.2499
▁baudenkmäler	-10.25
▁widmete	-10.2503
▁westlichen	-10.2505
▁unternehmer	-10.2507
▁wider	-10.2508
▁erscheinen	-10.2508
pass	-10.2521
saison	-10.2522
▁zählt	-10.253
▁beginnt	-10.2536
eli	-10.2538
richter	-10.2548
▁modern	-10.2551
nsg	-10.2561
artige	-10.2567
▁wu	-10.2571
rücken	-10.2571
gebiete	-10.2579
▁brief	-10.2582
▁mühlen	-10.2582
griff	-10.2584
avi	-10.2591
▁suche	-10.2597
nord	-10.2608
46	-10.261
▁tro	-10.2615
▁hamburger	-10.262
▁feder	-10.262
▁assistent	-10.2621
▁kommission	-10.2624
▁abstieg	-10.2625
▁street	-10.2625
▁prokon	-10.2625
▁verleihung	-10.2625
▁bernard	-10.2629
▁europe	-10.263
▁sw	-10.263
auftritt	-10.263
ohr	-10.2631
weiß	-10.2637
hai	-10.264
▁monte	-10.2644
sgeschichte	-10.2648
schall	-10.2649
material	-10.265
verbindung	-10.2655
▁historiker	-10.2655
front	-10.2657
magnet	-10.2671
auszug	-10.2675
▁mauer	-10.2675
▁erhielten	-10.2676
▁verschiedener	-10.2678
▁marien	-10.2682
▁mio	-10.2683
▁qualität	-10.2687
sky	-10.269
▁lehrte	-10.2691
kurs	-10.2691
gold	-10.2696
▁derzeit	-10.2696
▁zo	-10.2697
ín	-10.2698
▁400	-10.2709
▁ya	-10.271
▁evangelisch	-10.2715
▁russische	-10.2716
part	-10.2717
mecklenburgische	-10.2722
▁höchste	-10.2739
▁ferner	-10.2743
â	-10.2753
▁benutzt	-10.2753
▁rechtsanwalt	-10.2753
▁nominiert	-10.2753
▁notwendig	-10.2753
▁intensiv	-10.2753
jew	-10.2754
▁gesamtwertung	-10.2755
▁erlangte	-10.2756
beamte	-10.2759
stedt	-10.2761
3)	-10.2761
▁kunden	-10.2762
▁morgen	-10.2763
▁sprechen	-10.2765
aka	-10.2765
▁augen	-10.2766
▁niederlande	-10.2766
▁gemäß	-10.2769
▁gehalten	-10.2775
▁300	-10.2777
bia	-10.2779
club	-10.2783
▁erb	-10.2785
abschluss	-10.2787
gründe	-10.2788
holstein	-10.2789
▁bisherige	-10.2794
ua	-10.2795
beruf	-10.2795
▁volk	-10.2796
▁carlo	-10.2797
▁gemälde	-10.28
daten	-10.2804
▁mädchen	-10.2806
▁juan	-10.2814
reichen	-10.2815
▁mission	-10.2819
▁fassade	-10.2822
lav	-10.2822
▁ganze	-10.2832
rup	-10.2839
▁untersuchung	-10.2839
iker	-10.2842
▁nummer	-10.2843
▁chemie	-10.2844
▁bie	-10.2846
eben	-10.2846
macht	-10.2849
▁seien	-10.2857
▁mandat	-10.286
▁38	-10.2864
▁physik	-10.2868
▁höher	-10.2868
una	-10.287
lösung	-10.2873
▁kos	-10.2876
eß	-10.2877
big	-10.2881
▁gute	-10.2882
verletzung	-10.2883
▁getrennt	-10.2883
▁speziell	-10.2883
▁seenplatte	-10.2883
▁prince	-10.2883
ence	-10.2883
▁gewerbe	-10.2883
▁erscheint	-10.2883
▁tan	-10.2885
wah	-10.2887
rank	-10.2888
▁whit	-10.2888
▁spielklasse	-10.2889
▁kategorie	-10.2889
▁kriegsende	-10.289
▁spi	-10.2893
brand	-10.2895
▁tre	-10.2896
▁vertrieb	-10.2899
▁versehen	-10.2901
▁qualifikation	-10.2907
▁1,5	-10.2908
▁sim	-10.2912
liegenden	-10.2914
freund	-10.2914
hut	-10.2916
▁oberfläche	-10.2917
kop	-10.2918
gebracht	-10.2924
▁offiziellen	-10.2925
press	-10.293
▁marie	-10.2948
▁nordwesten	-10.295
führt	-10.296
▁menge	-10.2965
▁graz	-10.2966
▁pop	-10.2969
▁que	-10.2977
▁pin	-10.2977
▁phase	-10.2995
▁strecken	-10.2998
▁planung	-10.3009
teilen	-10.3009
präsident	-10.301
▁entspricht	-10.3014
▁günter	-10.3014
▁münster	-10.3014
▁australia	-10.3014
▁automatisch	-10.3015
▁philippinische	-10.3015
not	-10.3016
▁hingegen	-10.3016
▁aktivitäten	-10.3017
▁bahnstrecke	-10.3019
freiwillig	-10.3019
▁woche	-10.3029
archiv	-10.303
▁sendung	-10.3031
▁diplomat	-10.3031
test	-10.3033
▁engagierte	-10.3035
einheit	-10.3036
▁einführung	-10.3036
▁leistungen	-10.3037
ender	-10.304
medaille	-10.3046
▁zentrale	-10.305
deutschsprachige	-10.3052
▁bestimmt	-10.3058
▁(16	-10.3058
▁halbfinale	-10.3062
▁geschwindigkeit	-10.3068
▁platten	-10.3074
▁wehr	-10.3074
▁sieger	-10.3077
▁höhere	-10.308
▁fertig	-10.3089
▁theologe	-10.3089
bot	-10.3092
▁fol	-10.3092
▁liberal	-10.3096
▁frühe	-10.31
▁amc	-10.3109
▁sandstein	-10.3113
ting	-10.3114
▁ungarische	-10.3125
put	-10.3126
▁lübecker	-10.3129
hana	-10.3132
▁halten	-10.3134
barkeit	-10.3135
sbereich	-10.3136
▁philosoph	-10.314
▁pflanzen	-10.3141
▁bekannten	-10.3146
▁spezial	-10.3147
temperatur	-10.3148
▁bedeutet	-10.3148
▁eingetragen	-10.3148
▁bewohner	-10.3148
▁entlassen	-10.3148
▁diepholz	-10.3148
schließt	-10.3149
▁dichter	-10.3149
▁erfolgt	-10.315
▁adolf	-10.315
▁dozent	-10.3151
▁grundstück	-10.3152
▁offenbar	-10.3152
abgeordnete	-10.3153
▁kennen	-10.3154
▁1880	-10.3157
ev	-10.3158
halb	-10.316
▁mannheim	-10.3164
▁ren	-10.3166
▁leer	-10.3173
kam	-10.3173
▁heißt	-10.3177
hafen	-10.3185
▁kurzen	-10.3188
▁schild	-10.3188
pokal	-10.3189
gui	-10.3191
pflege	-10.3191
ship	-10.3191
▁lin	-10.3203
öffnung	-10.3205
uhr	-10.3213
500	-10.3214
▁siebte	-10.3214
eff	-10.3219
cal	-10.322
▁kas	-10.3227
▁gemeinschaft	-10.3229
▁may	-10.3234
sur	-10.3241
spur	-10.3243
▁wil	-10.3244
vorsitzender	-10.3249
▁geschäft	-10.3255
▁ram	-10.3257
artig	-10.3262
▁weltkrieges	-10.3265
org	-10.3271
▁ausgestattet	-10.3283
▁dissertation	-10.3283
▁gelegentlich	-10.3283
▁grubenfeld	-10.3283
▁1905	-10.3284
räder	-10.3284
▁creek	-10.3284
würdig	-10.3285
▁stefan	-10.3285
▁barock	-10.3287
weiler	-10.3287
▁antonio	-10.3287
gitarre	-10.3288
jordanita	-10.3288
nummer	-10.3291
▁sin	-10.3292
tausch	-10.3295
▁autoren	-10.3298
▁gründer	-10.3301
▁kalifornien	-10.3304
▁500	-10.3304
ativ	-10.3304
▁publikum	-10.331
ava	-10.3313
▁ea	-10.3316
▁rote	-10.3324
unterricht	-10.3328
02	-10.3333
▁ol	-10.3338
▁quelle	-10.3343
til	-10.3343
▁spieltag	-10.3354
▁zustand	-10.3356
▁infolge	-10.3363
▁plant	-10.3363
▁oliv	-10.3389
ensis	-10.3397
wände	-10.3405
▁einzels	-10.341
wel	-10.3411
▁east	-10.3415
▁schaf	-10.3419
▁benötigt	-10.342
▁ausgewählt	-10.342
▁jerusalem	-10.342
▁abgeschlossen	-10.3432
▁fotograf	-10.3432
▁boot	-10.3437
▁japanischen	-10.3438
ár	-10.3461
▁freien	-10.3468
kat	-10.347
ausstellung	-10.3475
▁einzu	-10.3475
aria	-10.3475
▁vaters	-10.3479
mobil	-10.3482
▁handwerk	-10.3487
▁sankt	-10.3488
▁methode	-10.3498
landschaft	-10.3503
uti	-10.3506
▁nordosten	-10.3508
etti	-10.3508
prüf	-10.3508
wall	-10.3514
dlich	-10.3515
▁55	-10.3521
▁südosten	-10.3524
▁zählte	-10.3524
▁gesundheits	-10.3525
▁einfach	-10.3527
hielt	-10.3529
ländisch	-10.3531
▁steve	-10.3531
▁(195	-10.3535
▁sechste	-10.3536
▁wohnung	-10.3542
bst	-10.3548
▁bildungs	-10.3552
▁foto	-10.3553
einsätze	-10.3555
lässlich	-10.3559
▁1908	-10.3559
▁scheiterte	-10.3559
▁existiert	-10.3559
▁tallinn	-10.3559
▁nannte	-10.3559
▁1909	-10.356
▁tonnen	-10.356
▁1916	-10.356
darsteller	-10.356
▁stan	-10.3562
▁kirchspiel	-10.3562
▁abgeordneten	-10.3563
▁freiherr	-10.3563
▁43	-10.3567
▁1896	-10.3567
ée	-10.3574
▁bit	-10.3576
▁1000	-10.3577
▁serien	-10.3577
▁pferde	-10.3578
▁kauf	-10.3582
▁kindern	-10.3582
▁design	-10.359
▁zugeordnet	-10.3591
tätig	-10.3591
riss	-10.3594
▁jack	-10.3597
labor	-10.3606
▁südwesten	-10.3609
gesprochen	-10.361
▁poly	-10.361
gelände	-10.3627
altar	-10.3628
▁gegründeten	-10.3629
▁initiative	-10.363
▁pius	-10.363
stamm	-10.3631
werkstatt	-10.3637
metal	-10.3639
▁flächen	-10.3644
▁krieges	-10.3644
ory	-10.3647
▁kla	-10.3657
▁dritt	-10.3659
▁treffen	-10.366
▁universitäten	-10.3665
▁wander	-10.3668
▁tot	-10.3674
awa	-10.3676
▁films	-10.3681
▁erstellt	-10.3682
therapie	-10.3684
hit	-10.3691
gehalt	-10.3692
▁grafen	-10.3696
fähig	-10.3698
▁begrenzt	-10.37
▁benachbarte	-10.37
▁infanterie	-10.37
▁weibchen	-10.37
▁1906	-10.37
▁knoten	-10.37
▁streitkräfte	-10.37
▁wichtig	-10.3701
▁produktions	-10.3702
alp	-10.3706
▁heimatstadt	-10.3706
▁kult	-10.3708
tunnel	-10.3709
▁cap	-10.3717
▁simon	-10.3718
▁farm	-10.3719
▁vorsitzende	-10.3725
pianist	-10.3725
▁hil	-10.3726
▁eingang	-10.3733
▁leit	-10.3737
▁wahlkreis	-10.3738
ausschuss	-10.3739
able	-10.374
modelle	-10.3741
▁va	-10.3746
bol	-10.3747
ima	-10.375
▁daran	-10.3755
transport	-10.3756
▁ib	-10.3756
stock	-10.3762
braun	-10.3762
einrichtung	-10.3763
kämpfe	-10.3768
astro	-10.3771
anhalt	-10.3772
▁vize	-10.3777
▁fassung	-10.378
▁treffer	-10.3789
▁schw	-10.3791
ello	-10.3793
▁rathaus	-10.3795
▁cat	-10.3796
▁werbe	-10.3799
heide	-10.3801
▁güter	-10.3809
zimmer	-10.3812
▁weber	-10.3815
▁standen	-10.3819
▁oberliga	-10.3819
▁preußischen	-10.3822
busch	-10.3825
▁free	-10.3825
österreichischen	-10.3827
▁tim	-10.3832
▁begleit	-10.3832
▁geben	-10.3834
▁geburts	-10.3841
ome	-10.3842
▁entspringt	-10.3843
▁jürgen	-10.3843
▁stockholm	-10.3843
▁lehrstuhl	-10.3843
streifen	-10.3844
▁schlug	-10.3845
▁bürgerkrieg	-10.3845
gräber	-10.3845
giebel	-10.3845
▁250	-10.3846
▁draft	-10.3846
▁36	-10.3847
antwort	-10.3847
▁ach	-10.3849
▁night	-10.3851
engl	-10.3852
glocke	-10.3853
gasse	-10.3853
–17	-10.3858
greifen	-10.3868
▁it	-10.3868
▁besetzung	-10.3871
▁rh	-10.3874
9)	-10.3875
▁zugang	-10.3878
▁büro	-10.3883
region	-10.389
▁hundert	-10.3891
▁kristall	-10.3892
▁verfügte	-10.3896
zeichnung	-10.3899
▁test	-10.39
hand	-10.3901
hochschule	-10.3903
▁vereinigung	-10.3904
aire	-10.3906
▁2017.	-10.3912
▁schenk	-10.392
cio	-10.3923
▁belegt	-10.3926
weich	-10.3926
▁kilometern	-10.3932
▁prinz	-10.3932
▁gattung	-10.3933
▁helm	-10.3935
▁vogel	-10.3936
▁(192	-10.3937
gestaltung	-10.3938
verlag	-10.394
gal	-10.3941
damm	-10.3943
▁dampf	-10.3943
▁rechte	-10.3948
▁29	-10.395
▁personal	-10.3951
▁final	-10.3955
liegende	-10.396
▁gekommen	-10.3961
fort	-10.3962
reiche	-10.3965
▁umbau	-10.3966
strecke	-10.3966
▁festung	-10.3967
▁schauspiel	-10.397
▁starken	-10.3971
▁eröffnete	-10.3977
▁sul	-10.3983
wal	-10.3986
▁skulpturen	-10.3987
▁leichtathletik	-10.3987
▁erhöht	-10.3987
▁zentimeter	-10.3987
▁künste	-10.3988
▁wehrmacht	-10.3988
▁beliebt	-10.3989
▁dänische	-10.3989
▁1917	-10.3989
▁group	-10.3989
▁vierte	-10.3989
owski	-10.3993
▁informationen	-10.3994
▁fred	-10.3994
▁tau	-10.3995
komplex	-10.3998
zahn	-10.4
▁alex	-10.4001
bedingt	-10.4001
punkte	-10.4002
▁wissenschaften	-10.4003
cz	-10.4004
▁schott	-10.4004
baren	-10.4004
virus	-10.4005
höhe	-10.4013
▁produzent	-10.4019
▁luis	-10.4027
ül	-10.4032
more	-10.4032
reife	-10.4033
▁mitgliedern	-10.4034
▁indien	-10.4039
▁erhält	-10.4041
▁back	-10.4052
▁streit	-10.4058
▁carr	-10.4059
▁spitzen	-10.406
sprachige	-10.4061
show	-10.4064
▁träger	-10.407
▁schwa	-10.4073
frau	-10.408
▁auftritte	-10.4083
▁wm	-10.4083
▁erfolgten	-10.4084
▁rosa	-10.4084
▁projekte	-10.4084
▁motiv	-10.4087
31	-10.4095
▁mun	-10.4097
antrieb	-10.4102
▁griff	-10.4108
▁geleitet	-10.4114
gesetzes	-10.4118
▁südwest	-10.4123
king	-10.4125
räumen	-10.4128
▁akademische	-10.4135
▁verurteilt	-10.4135
▁ägypten	-10.4135
▁manfred	-10.4135
▁maximal	-10.4135
▁nutzen	-10.4135
▁praktisch	-10.4135
▁altersbedingte	-10.4135
▁betreut	-10.4135
▁1902	-10.4135
▁pastor	-10.4135
▁behandelt	-10.4136
▁online	-10.4136
▁gabriel	-10.4136
▁hoher	-10.4137
▁schützen	-10.414
▁arabisch	-10.414
▁herbert	-10.4141
▁umgebaut	-10.4144
▁gerichts	-10.4144
▁probleme	-10.4147
▁jugendliche	-10.4149
▁erklärte	-10.4157
▁freiheit	-10.4163
▁schaffen	-10.4168
ufer	-10.4169
▁fahrzeuge	-10.4171
▁jahrzehnte	-10.4181
inner	-10.4182
▁gran	-10.4184
▁angel	-10.419
▁sekretär	-10.4192
▁versucht	-10.4192
▁schmidt	-10.4192
▁hä	-10.4196
▁fahrzeug	-10.4197
▁sieht	-10.4201
05	-10.4203
bringen	-10.4207
▁ziele	-10.4207
▁75	-10.421
▁mittelalterlich	-10.4215
▁dick	-10.4216
zunehmen	-10.423
▁eishockey	-10.4234
▁180	-10.424
▁verletzt	-10.4243
▁leib	-10.4253
▁angeboten	-10.4259
▁bundestag	-10.4263
▁ky	-10.4265
▁konstruktion	-10.427
spalt	-10.427
▁braunschweig	-10.4284
▁columbia	-10.4284
▁digitale	-10.4284
▁giovanni	-10.4284
▁zählen	-10.4284
▁pianola	-10.4284
▁erkennen	-10.4284
▁bedient	-10.4284
▁getragen	-10.4284
▁anwendung	-10.4284
▁dargestellt	-10.4286
▁stärker	-10.4287
▁65	-10.4288
▁inne	-10.429
modus	-10.4291
holsteinischen	-10.4291
▁werner	-10.4292
▁afrika	-10.4292
▁1885	-10.4292
onne	-10.4293
▁1890	-10.4293
▁sofort	-10.4294
▁france	-10.4296
▁entstehen	-10.4298
▁reisen	-10.4298
▁rau	-10.4298
▁ersatzteil	-10.4302
▁allgemeine	-10.4307
ular	-10.4308
▁satz	-10.4309
▁sonstige	-10.431
▁vari	-10.4312
histo	-10.432
setzte	-10.4321
▁bezeichnete	-10.4322
▁löste	-10.4326
▁nachfolgend	-10.4327
▁mä	-10.4331
▁blatt	-10.4341
▁engel	-10.4345
method	-10.4346
▁orchester	-10.4351
▁schwach	-10.4353
▁dauer	-10.4353
sammlung	-10.4368
▁schau	-10.4374
▁dokument	-10.4375
biologie	-10.4376
hoch	-10.4377
erfolg	-10.438
▁gelangte	-10.4392
kreises	-10.4393
sprach	-10.4394
▁bett	-10.4397
▁verlust	-10.4401
▁sinn	-10.4402
born	-10.4406
rain	-10.4407
jap	-10.4417
ois	-10.4417
▁sende	-10.442
jü	-10.4423
▁spa	-10.4424
▁management	-10.4425
▁häuser	-10.4433
▁religiöse	-10.4435
▁utenhove	-10.4435
bündnis	-10.4435
vertretung	-10.4435
▁litauische	-10.4435
▁eigenständige	-10.4436
▁kurfürst	-10.4436
▁verändert	-10.4436
▁göttingen	-10.4437
▁erinnert	-10.4437
▁entweder	-10.4437
▁geschäftsführer	-10.4437
▁verdienste	-10.4439
▁fracht	-10.4441
▁blues	-10.4441
▁1893	-10.4443
▁herstellung	-10.4446
▁modernen	-10.4446
▁massen	-10.4448
ity	-10.445
▁bil	-10.4452
▁betrachtet	-10.4453
▁armenische	-10.4453
▁großteil	-10.4457
▁aussage	-10.4459
▁adam	-10.4466
zäh	-10.4469
iana	-10.4476
▁dritter	-10.448
▁publikationen	-10.4486
▁errichtete	-10.449
vorstand	-10.4493
▁texte	-10.4493
frage	-10.4496
fc	-10.4497
gerichtet	-10.4498
▁winterspiele	-10.4499
ping	-10.45
▁sender	-10.4503
▁teams	-10.4506
▁versorgung	-10.4508
geschrieben	-10.4513
polizei	-10.4514
▁fein	-10.4517
▁mill	-10.4524
▁songs	-10.4535
anti	-10.4538
cus	-10.4543
▁leistungs	-10.4556
▁37	-10.4558
▁geh	-10.4569
medi	-10.4569
1)	-10.4569
▁lieb	-10.457
▁rückte	-10.4573
sy	-10.4578
deutsche	-10.4589
▁dunkel	-10.4589
experiment	-10.4589
▁ausgestrahlt	-10.4589
▁erweiterung	-10.4589
▁edward	-10.4589
zeichnen	-10.4589
▁leopold	-10.4589
▁stollen	-10.4589
▁herausgeber	-10.4589
▁angeblich	-10.4591
▁antonius	-10.4592
▁helmut	-10.4593
vision	-10.4594
▁roh	-10.4597
forscher	-10.4597
iro	-10.4598
▁konrad	-10.4598
▁1895	-10.4598
tom	-10.4602
arab	-10.4603
▁power	-10.4606
▁produzierte	-10.4608
▁hierbei	-10.4612
▁47	-10.4618
ausgabe	-10.4629
läufe	-10.4631
▁konflikt	-10.4631
▁pf	-10.4637
▁mich	-10.4637
verlauf	-10.4639
ierenden	-10.4645
ographie	-10.465
▁bevölkerungs	-10.4654
rick	-10.4656
▁tab	-10.4657
▁einheiten	-10.4658
▁zug	-10.4661
▁bruch	-10.4666
▁matt	-10.4668
versorgung	-10.4671
studio	-10.4671
bataillon	-10.4671
rhein	-10.4676
▁übergang	-10.4677
▁leistung	-10.4677
ebene	-10.4677
▁gef	-10.4688
▁chem	-10.4691
sprecher	-10.4698
▁cur	-10.4699
süd	-10.4704
▁englische	-10.4709
▁fernsehen	-10.4711
▁bilder	-10.4719
▁gö	-10.4724
bindung	-10.4729
▁ingenieur	-10.473
ritorialprälatur	-10.4745
▁ferdinand	-10.4745
public	-10.4745
erkrankung	-10.4745
▁nicola	-10.4745
rechnung	-10.4746
▁geriet	-10.4746
▁hieß	-10.4746
▁major	-10.4746
▁trocken	-10.4747
▁entgegen	-10.4747
▁fremd	-10.4749
zar	-10.475
▁1884	-10.4752
roll	-10.4753
link	-10.4756
act	-10.4759
▁hält	-10.4762
▁küsten	-10.4767
▁ständig	-10.4769
▁q	-10.4773
▁bestimmten	-10.478
▁auswahl	-10.4791
menge	-10.4792
▁formen	-10.4792
ado	-10.4796
leuchte	-10.4801
wanderung	-10.4803
▁genf	-10.4803
▁henri	-10.4804
▁sprints	-10.4804
▁sea	-10.4807
anteil	-10.4808
▁dörfer	-10.4811
▁erfolglos	-10.4819
▁media	-10.4821
▁witt	-10.483
▁spanische	-10.4833
halter	-10.4834
mission	-10.4836
▁jurist	-10.4837
bezeichnung	-10.4849
▁bühne	-10.4859
▁science	-10.4859
▁cre	-10.4865
küste	-10.4866
▁lösung	-10.4869
▁entdeckte	-10.488
▁ungarn	-10.4886
sportler	-10.4889
reiter	-10.4891
journal	-10.4899
orchester	-10.49
▁gottes	-10.49
▁1904	-10.4904
▁publiziert	-10.4904
▁vorgesehen	-10.4904
▁unbewegliche	-10.4904
▁weibliche	-10.4904
▁ulrich	-10.4904
▁antheil	-10.4905
▁claudi	-10.4905
▁henry	-10.4905
schaffung	-10.4905
▁ausgewiesen	-10.4906
▁auseinandersetz	-10.4907
▁wissen	-10.4907
▁wahr	-10.4907
▁vorkommen	-10.4907
▁option	-10.4907
▁kindheit	-10.4908
▁scott	-10.4909
dre	-10.491
▁enthalten	-10.4911
▁höhepunkt	-10.4916
▁essen	-10.4918
▁kulturelle	-10.4919
kind	-10.4924
▁wissenschaftler	-10.4929
hou	-10.4932
▁genannten	-10.4933
▁if	-10.4933
▁einzelne	-10.4933
prinzip	-10.4934
▁arzt	-10.4934
▁koch	-10.4934
▁merk	-10.4935
▁allgemeinen	-10.4935
▁bul	-10.4937
▁gesetzt	-10.4937
road	-10.4938
▁sciences	-10.4949
▁bekannteste	-10.4949
4)	-10.4952
gewinn	-10.4959
▁welle	-10.4962
kauf	-10.4963
▁starke	-10.4964
▁wirtschaftliche	-10.4966
▁palm	-10.4971
▁krankheit	-10.4974
▁litt	-10.4976
▁schritt	-10.4978
▁küste	-10.4981
▁nordamerika	-10.4982
▁botschafter	-10.4983
▁durchschnitt	-10.4985
▁blum	-10.4988
▁tür	-10.4993
politiker	-10.4996
▁sig	-10.4998
▁hass	-10.4999
macher	-10.5001
christ	-10.5004
▁ausstellungen	-10.5007
▁brach	-10.501
losen	-10.5016
stellte	-10.5027
feier	-10.5034
setzt	-10.5036
▁rohr	-10.5037
kosten	-10.504
▁mittlere	-10.5042
▁alben	-10.5048
heimer	-10.5058
▁landschaft	-10.5065
▁eliasson	-10.5065
▁tatsächlich	-10.5065
▁begonnen	-10.5065
▁computer	-10.5065
▁flüsse	-10.5065
▁fellow	-10.5065
▁odense	-10.5065
geschwader	-10.5065
▁jetzt	-10.5066
▁ordentliche	-10.5066
trans	-10.5066
▁endgültig	-10.5066
effekt	-10.5066
▁gericht	-10.5066
▁erfolgreiche	-10.5066
▁abgeordneter	-10.5067
installation	-10.5067
wür	-10.5069
▁1891	-10.5071
▁...	-10.5071
▁prag	-10.5072
▁erfolgreichste	-10.5076
produktionen	-10.5079
▁kö	-10.5088
inisterpräsident	-10.5093
▁bezog	-10.5093
▁erziehung	-10.5097
isches	-10.5097
▁master	-10.5106
brett	-10.511
stuhl	-10.5116
▁bezug	-10.5118
karte	-10.5118
▁einst	-10.5119
▁portugiesische	-10.5125
long	-10.5129
ierende	-10.5134
ough	-10.5134
-2	-10.5136
▁baute	-10.5139
▁dü	-10.5144
aya	-10.5149
▁teilen	-10.5155
▁museums	-10.5156
▁einfache	-10.5157
▁japanische	-10.5158
▁eröffnung	-10.5159
hersteller	-10.5162
österreich	-10.5162
geschwindigkeit	-10.5163
sekretär	-10.5165
position	-10.5165
▁mündung	-10.5176
▁unterricht	-10.518
gleis	-10.5184
▁vorbei	-10.5184
organ	-10.5185
▁umfasste	-10.5185
kunft	-10.5189
▁clar	-10.5191
▁geschlecht	-10.5207
smitglieder	-10.5223
▁gesundheit	-10.5224
mitte	-10.5226
▁kardinal	-10.5229
▁archäologische	-10.5229
▁flüchtlinge	-10.5229
▁investition	-10.5229
▁kriegsgefangen	-10.5229
▁matthias	-10.5229
▁sozialdemokrat	-10.5229
▁porträt	-10.5229
▁reserve	-10.5229
▁männliche	-10.5229
▁barbara	-10.5229
▁fungierte	-10.5229
code	-10.5229
▁mikro	-10.523
▁verteilt	-10.5231
▁1915	-10.5232
▁erfahrung	-10.5232
▁francisco	-10.5232
▁geschützt	-10.5233
kugel	-10.5233
▁mannschafts	-10.5233
▁stets	-10.5236
▁sinne	-10.524
kern	-10.5241
▁gas	-10.5242
schuppen	-10.5243
▁besucher	-10.5245
▁bin	-10.5246
▁ahl	-10.5249
▁blas	-10.5255
▁wood	-10.5257
▁schuf	-10.5261
▁aufgebaut	-10.5264
▁verhalten	-10.5265
▁gall	-10.5273
▁karte	-10.5277
izz	-10.5281
,0	-10.5286
zustellen	-10.529
▁jena	-10.5293
▁zone	-10.5295
mitglieder	-10.5296
▁lernte	-10.5297
▁anonymous	-10.5298
▁elektrische	-10.5301
ald	-10.5303
▁39	-10.5306
▁nehmen	-10.5307
▁stu	-10.5308
änderung	-10.5311
räte	-10.5315
▁thor	-10.5317
▁arts	-10.5322
▁%)	-10.5323
▁wesentlichen	-10.5327
▁meinung	-10.5327
möglich	-10.5329
▁polnische	-10.5331
slaw	-10.5332
medizin	-10.5332
hügel	-10.5333
gründung	-10.5334
▁latein	-10.5334
hauptstadt	-10.5337
vereinigung	-10.5337
teur	-10.5344
▁wiesen	-10.535
strecken	-10.5351
▁würden	-10.5353
geld	-10.5353
lagerung	-10.5358
▁pierre	-10.5362
wär	-10.5362
▁problem	-10.5367
zeitung	-10.5368
ipp	-10.537
gil	-10.5372
▁demokratische	-10.538
▁beziehungen	-10.538
becken	-10.5386
▁allgemein	-10.5392
mati	-10.5394
▁netz	-10.5394
▁priester	-10.5396
▁beschreibt	-10.5396
▁company	-10.5396
▁karlsruhe	-10.5396
▁rallye	-10.5396
▁research	-10.5396
günstig	-10.5396
▁belgien	-10.5396
▁ruhestand	-10.5396
▁hoffmann	-10.5396
vögel	-10.5396
▁geschichts	-10.5396
▁viertelfinale	-10.5397
▁bernhard	-10.5397
lik	-10.54
kanonen	-10.5401
▁umfangreiche	-10.5401
anta	-10.5402
▁alma	-10.5403
▁luther	-10.5403
rumpf	-10.5404
▁fan	-10.5406
kenntnis	-10.5407
owitsch	-10.5407
▁eddie	-10.5408
▁heer	-10.541
kapitel	-10.5414
▁horn	-10.5418
▁jim	-10.5422
stall	-10.5425
1882	-10.5425
gest	-10.5426
stehen	-10.5427
▁wenigen	-10.5429
▁ersatz	-10.5429
▁ball	-10.5431
höhle	-10.5437
▁franken	-10.5447
pur	-10.545
▁schreiben	-10.5458
▁vel	-10.5471
▁ältesten	-10.5477
▁rollen	-10.5477
zio	-10.5478
▁hö	-10.548
bek	-10.5483
▁río	-10.549
▁besitzer	-10.5494
wirkung	-10.5505
feuer	-10.5505
bevölkerung	-10.5506
kloster	-10.5506
▁tages	-10.5511
▁angestellt	-10.5511
▁show	-10.5514
bahnhof	-10.5516
shire	-10.5517
▁einheit	-10.5521
▁filmen	-10.5529
uri	-10.5532
▁kurt	-10.5532
▁bass	-10.5532
tain	-10.5533
südamerika	-10.5538
▁fragen	-10.5539
edit	-10.5543
▁elemente	-10.5565
▁dokumentarfilm	-10.5565
▁päpstliche	-10.5565
▁tübingen	-10.5565
▁zugänglich	-10.5565
artillerie	-10.5565
gliederung	-10.5565
▁definiert	-10.5565
▁gebrauch	-10.5565
▁selbständig	-10.5565
▁udssr	-10.5565
▁verpasste	-10.5566
▁herrscher	-10.5566
differenz	-10.5566
▁griechenland	-10.5567
▁gerhard	-10.5568
▁frühere	-10.5568
▁multi	-10.5571
▁vizepräsident	-10.5571
▁42	-10.5572
▁1875	-10.5573
▁brt	-10.5574
▁fähr	-10.5574
versicherung	-10.5574
▁auflage	-10.5575
▁spielten	-10.5576
▁behörden	-10.5578
aro	-10.5583
einheiten	-10.5592
schütz	-10.5592
▁begab	-10.5596
▁german	-10.5597
runden	-10.5598
malige	-10.56
▁niederlage	-10.5602
▁übersetzung	-10.5608
▁marburg	-10.5611
streit	-10.5616
▁basiert	-10.5617
chow	-10.563
trakt	-10.5632
alle	-10.5633
▁santo	-10.5633
▁britischer	-10.5635
▁kä	-10.5635
teils	-10.5644
▁handelte	-10.5655
▁britis	-10.5656
eiche	-10.5672
bilder	-10.5678
teilnehmer	-10.5682
weide	-10.5683
weltcup	-10.5684
partner	-10.5687
▁punkten	-10.5687
▁umfassende	-10.5688
studie	-10.5709
▁typische	-10.571
▁blieben	-10.5713
smal	-10.5715
▁fraktion	-10.5722
▁russisch	-10.5732
führen	-10.5734
▁erscheinung	-10.5737
▁département	-10.5738
▁mexikanische	-10.5738
▁niedersachsen	-10.5738
▁bleiben	-10.5738
▁ukraine	-10.5738
kognit	-10.5738
▁norwegen	-10.5738
moderator	-10.5738
▁norwegische	-10.5738
▁olympia	-10.5739
▁philippinen	-10.5739
▁eingeweiht	-10.5739
▁republikanische	-10.5739
▁schriften	-10.5739
▁schwimm	-10.574
▁geistlicher	-10.574
▁stapel	-10.5741
▁unabhängigkeit	-10.5741
▁finnische	-10.5741
▁party	-10.5743
▁steil	-10.5743
▁1897	-10.5746
▁garde	-10.5747
▁informations	-10.5747
▁daraus	-10.5748
führende	-10.5754
pha	-10.5757
para	-10.5759
▁gera	-10.5761
▁horst	-10.5766
rom	-10.577
türme	-10.5771
▁mono	-10.5775
▁gemeinsame	-10.5775
▁zukunft	-10.5778
wort	-10.5782
▁gau	-10.579
▁professur	-10.5792
atisch	-10.5793
inhaber	-10.5796
▁botani	-10.5796
▁torpedo	-10.5806
grabungen	-10.5809
▁kommandeur	-10.581
format	-10.5814
▁woll	-10.5815
▁var	-10.5817
▁mord	-10.5821
ehemals	-10.5822
▁einrichtung	-10.5828
▁tun	-10.5829
ici	-10.583
psych	-10.583
strich	-10.5839
stufen	-10.584
▁mittels	-10.5847
▁interessen	-10.5849
▁versetzt	-10.5849
iso	-10.5851
▁aufenthalt	-10.5856
▁berater	-10.5858
klinik	-10.5859
▁still	-10.5861
zellen	-10.5862
▁langjährige	-10.5868
▁[	-10.5871
▁wirtschaftlich	-10.5871
kurse	-10.5872
▁erich	-10.5873
iff	-10.5885
ional	-10.5887
▁kreuzer	-10.5899
▁instituts	-10.5903
▁konzerte	-10.5903
astronom	-10.591
kommissar	-10.5911
▁braunkohle	-10.5913
▁erworben	-10.5913
▁katholikos	-10.5913
▁lissabon	-10.5913
▁osnabrück	-10.5913
▁titularbischof	-10.5913
superintendent	-10.5913
▁ermordet	-10.5913
▁gewerkschaft	-10.5913
▁kritisiert	-10.5913
▁wiederholt	-10.5913
▁oldenburg	-10.5913
▁cruz	-10.5913
kampagne	-10.5913
▁flucht	-10.5913
geliefert	-10.5914
▁verfolgt	-10.5914
▁kapitän	-10.5914
▁volkszählung	-10.5914
▁musikvideo	-10.5914
▁kooperation	-10.5915
▁verwaltungssitz	-10.5915
kolonie	-10.5916
▁schimmer	-10.5917
▁freundschaft	-10.5917
▁verstärkt	-10.5917
▁figuren	-10.5922
▁einrichtungen	-10.5922
▁ermittelt	-10.5924
▁brenn	-10.5925
▁talent	-10.5933
▁schi	-10.5933
ommer	-10.5935
▁wollen	-10.5936
▁athen	-10.5937
gelagert	-10.5938
▁präsentiert	-10.5943
▁rico	-10.5945
▁vorgestellt	-10.5946
▁ausgerichtet	-10.5948
▁hay	-10.5948
▁yo	-10.5949
▁liverpool	-10.5949
▁achse	-10.5951
▁vas	-10.5954
▁skulptur	-10.5958
▁wisconsin	-10.5962
treu	-10.5962
▁klinik	-10.5969
graphische	-10.5972
▁court	-10.5975
▁sozialen	-10.5977
▁chile	-10.5977
▁mecklenburg	-10.5979
▁firmen	-10.5983
▁christliche	-10.5998
katalog	-10.6
▁beteiligung	-10.6012
▁tritt	-10.6014
▁gewicht	-10.6014
▁ali	-10.602
▁blo	-10.6022
▁tabellen	-10.6023
istisch	-10.6033
▁amerika	-10.6033
▁sl	-10.6034
▁å	-10.6035
magazin	-10.6041
bibliothek	-10.6041
flo	-10.6043
dio	-10.6044
autor	-10.6047
abtei	-10.6055
▁800	-10.6058
oz	-10.6059
slawische	-10.6061
5)	-10.6063
▁gegründete	-10.6066
oxid	-10.607
▁48	-10.6072
bereit	-10.6073
forderung	-10.6079
▁unver	-10.6083
▁seminar	-10.6084
▁passagier	-10.6085
▁silbermedaille	-10.6087
▁neo	-10.6088
▁analyse	-10.6089
▁beschädigt	-10.6092
▁championship	-10.6092
▁patienten	-10.6092
▁rezeption	-10.6092
▁zeitgenössische	-10.6092
seelsorge	-10.6092
▁2010/11	-10.6092
▁erlaubt	-10.6092
▁durfte	-10.6092
▁negativ	-10.6092
▁franzosen	-10.6092
admiral	-10.6092
▁witwe	-10.6092
▁beach	-10.6092
▁aufnahmen	-10.6093
▁aachen	-10.6093
▁geburtstag	-10.6094
atlant	-10.6094
▁chance	-10.6095
▁marcus	-10.6095
▁1848	-10.6099
▁1874	-10.61
▁könne	-10.6102
▁gelten	-10.6102
sprung	-10.6102
▁renn	-10.6105
▁preußen	-10.6108
▁demokrat	-10.6109
signal	-10.6118
▁schnee	-10.6118
▁sichtbar	-10.6121
pause	-10.6122
▁platzierung	-10.6124
▁170	-10.6136
▁kommunikation	-10.6137
▁breiten	-10.6142
▁renaissance	-10.6145
schuld	-10.6146
,9	-10.6147
▁rasch	-10.6157
▁angebracht	-10.6158
▁stellung	-10.6158
▁saar	-10.6163
▁völker	-10.6175
▁größer	-10.6177
▁werken	-10.6184
▁typisch	-10.6186
▁weiße	-10.6186
▁besch	-10.6188
▁beigesetzt	-10.6191
▁ski	-10.6196
abschnitt	-10.6196
apo	-10.6199
mol	-10.6205
▁ausnahme	-10.6207
▁dialekt	-10.6214
▁praxis	-10.6214
▁finanzielle	-10.6219
▁pokal	-10.6227
lari	-10.6228
▁kling	-10.6231
veranstaltung	-10.6232
▁nachwuchs	-10.6238
schild	-10.6241
blitz	-10.625
rtillo	-10.6253
bö	-10.626
▁älteren	-10.6263
disziplin	-10.6274
▁napoleon	-10.6274
▁längs	-10.6274
▁minnesota	-10.6274
▁männchen	-10.6274
▁urkundlich	-10.6274
▁2011/12	-10.6274
▁völlig	-10.6274
▁schlechte	-10.6274
▁laurent	-10.6274
▁drehbuchautor	-10.6274
▁gefördert	-10.6274
affäre	-10.6274
▁anhänger	-10.6274
▁trainiert	-10.6275
▁irland	-10.6275
▁urkunde	-10.6276
▁staffelrennen	-10.6276
▁schneider	-10.6276
▁stars	-10.6277
▁pfarrei	-10.6278
▁rose	-10.6279
▁gewisse	-10.6279
▁salz	-10.6282
▁1892	-10.6282
▁kommando	-10.6285
▁alpen	-10.6287
▁gegend	-10.629
geordnet	-10.6291
▁stimm	-10.6299
▁lehn	-10.63
▁urteil	-10.6306
▁regiment	-10.6312
▁gesicht	-10.6319
zwei	-10.6323
▁angegeben	-10.6323
gegeben	-10.6326
▁aussehen	-10.633
▁befanden	-10.634
▁verhältnis	-10.634
▁sparkasse	-10.6346
▁schacht	-10.6355
▁bell	-10.6358
▁komponisten	-10.6359
worth	-10.6362
assi	-10.6371
▁spitz	-10.6372
▁mühl	-10.6378
▁bringen	-10.638
helden	-10.6381
▁sonnen	-10.6384
▁verfassungs	-10.6384
agne	-10.6385
ringer	-10.6387
aufnahmen	-10.6392
▁julius	-10.6396
meyer	-10.64
▁toten	-10.6406
möglichkeiten	-10.6409
ség	-10.6413
historiker	-10.6415
instrument	-10.6415
kö	-10.6423
▁verteidigung	-10.6425
gespielt	-10.6437
▁klassen	-10.6438
▁türkischen	-10.6438
▁funktionen	-10.6439
fürst	-10.6443
▁theorie	-10.6455
▁näher	-10.6456
genossenschaft	-10.6459
▁anerkannt	-10.6459
▁bukarest	-10.6459
▁geeignet	-10.6459
▁mathematik	-10.6459
▁frucht	-10.6459
▁wunsch	-10.6459
▁hilfs	-10.6459
▁gefertigt	-10.6459
▁beziehungsweise	-10.6459
rod	-10.646
▁gefecht	-10.646
▁trennt	-10.646
▁fachhochschule	-10.646
▁zumeist	-10.6462
▁rostock	-10.6462
höhen	-10.6462
▁heirat	-10.6463
▁werft	-10.6463
▁antrat	-10.6465
bomber	-10.6465
mutter	-10.6465
ière	-10.6467
▁1878	-10.6467
▁1898	-10.6467
▁1889	-10.6468
domini	-10.6473
▁amtszeit	-10.6473
▁nächste	-10.6475
▁gesehen	-10.6476
verhältnisse	-10.6477
▁rö	-10.648
▁züge	-10.6481
▁roger	-10.6482
coll	-10.6482
▁theologische	-10.6483
▁zulassung	-10.6485
arad	-10.6486
▁zeitraum	-10.6489
▁samt	-10.6492
900	-10.6499
▁malerei	-10.6499
▁premier	-10.6501
▁verfolgung	-10.6501
▁rief	-10.6503
▁young	-10.6512
▁weich	-10.6515
massiv	-10.6519
▁kanal	-10.652
▁institution	-10.6522
▁mur	-10.6528
▁dokumentation	-10.6544
▁lehre	-10.6553
▁objekt	-10.6563
▁46	-10.6565
schriften	-10.6571
soci	-10.6572
ausschusses	-10.658
▁nordheim	-10.6581
sozialistische	-10.6592
▁clark	-10.6596
▁gras	-10.6597
▁vorbild	-10.6601
schaffen	-10.6606
produzent	-10.6607
▁fließ	-10.6611
▁nationen	-10.6611
tournee	-10.6612
▁flusses	-10.6613
friedhof	-10.6614
▁sportliche	-10.6616
▁erklärt	-10.6619
▁letztere	-10.6621
▁haft	-10.6629
berechtigt	-10.6633
▁errang	-10.6638
armee	-10.6641
burger	-10.6645
gitarrist	-10.6648
oberhäupt	-10.6648
▁ansässig	-10.6648
▁beeinflusst	-10.6648
▁building	-10.6648
▁entwickeln	-10.6648
▁kabinett	-10.6648
▁namibia	-10.6648
▁glasgow	-10.6648
▁präfektur	-10.6648
▁castle	-10.6648
▁arnold	-10.6648
▁lizenz	-10.6648
▁hospital	-10.6649
▁spezialisiert	-10.6649
▁galerie	-10.6649
trompete	-10.6651
aufnahme	-10.6652
pfeil	-10.6652
sturz	-10.6653
masse	-10.6653
fri	-10.6654
ermittlung	-10.6654
▁holl	-10.6656
▁letzter	-10.6657
▁1870	-10.6659
side	-10.666
▁donau	-10.6663
▁führenden	-10.6664
schuss	-10.6664
▁shi	-10.6668
stosch	-10.667
ladung	-10.6684
oberseite	-10.6692
beratung	-10.6693
heu	-10.6694
▁immun	-10.6694
▁eigentümer	-10.6695
▁synchron	-10.6717
▁heilige	-10.672
▁gor	-10.6721
wing	-10.6724
100	-10.6725
lime	-10.6725
▁stab	-10.673
fragen	-10.6735
▁quell	-10.6737
strom	-10.6741
▁bestimmte	-10.6744
▁gestaltung	-10.6762
gelasse	-10.6764
▁glo	-10.6764
▁baron	-10.6778
▁statue	-10.678
schwä	-10.678
▁sz	-10.6784
▁hund	-10.6786
▁jeden	-10.6793
▁natürliche	-10.6794
▁königin	-10.6795
funktion	-10.6802
malerei	-10.6803
arren	-10.6803
scheide	-10.6803
schuh	-10.6804
klub	-10.6804
▁bud	-10.6809
leicht	-10.681
herrschaft	-10.6811
▁sara	-10.6819
pädagogik	-10.6828
text	-10.683
▁frehley	-10.684
▁kolonial	-10.684
▁literarische	-10.684
▁rheydt	-10.684
▁straßburg	-10.684
gestiegen	-10.684
▁verlängert	-10.684
▁erforderlich	-10.684
▁osjorsk	-10.684
▁ehrenamtlich	-10.684
▁patrick	-10.684
▁theatre	-10.684
▁befindliche	-10.684
bachelor	-10.684
▁erinnerung	-10.6841
▁ursprung	-10.6841
▁länderspiel	-10.6842
▁nachrichten	-10.6842
▁oscar	-10.6843
scheibe	-10.6845
gesch	-10.6851
▁pur	-10.6852
▁prix	-10.6852
▁untergebracht	-10.6863
▁vereinigte	-10.6864
▁behandlung	-10.6872
peter	-10.6874
strahlung	-10.6878
bundes	-10.688
öfen	-10.6885
▁ausschuss	-10.6888
▁ukrainische	-10.6889
▁übernehmen	-10.6891
▁nachweis	-10.6896
▁beiträge	-10.6896
▁beschloss	-10.6898
hild	-10.6902
new	-10.6909
solid	-10.691
▁warschau	-10.6913
▁eigenschaften	-10.693
▁heinz	-10.6932
leiten	-10.6934
▁besitzen	-10.6935
▁verstorbenen	-10.6943
▁botschaft	-10.6944
▁vermögen	-10.6944
ark	-10.6947
▁türkische	-10.695
geschlossen	-10.695
▁blu	-10.6953
tplatzierte	-10.6955
vater	-10.696
gru	-10.6971
▁sängerin	-10.6978
▁ford	-10.6984
▁freunde	-10.6985
fertig	-10.6989
folgezeit	-10.6999
▁pic	-10.7001
▁beziehung	-10.7001
konzept	-10.7003
niederlage	-10.7003
junioren	-10.7004
▁engagiert	-10.7006
geboren	-10.7009
baum	-10.7015
getriebe	-10.7018
▁gelegt	-10.7023
▁flieger	-10.7032
▁geschlagen	-10.7033
▁unterrichtete	-10.7034
dioecesis	-10.7036
pädagogische	-10.7036
stipendium	-10.7036
▁angenommen	-10.7036
▁prototyp	-10.7036
schoepit	-10.7036
▁trifft	-10.7036
▁butler	-10.7036
komödie	-10.7036
aufträge	-10.7036
infrastruktur	-10.7037
lehnung	-10.7037
▁global	-10.7037
▁pilot	-10.7037
▁angesehen	-10.7038
▁carolina	-10.7038
italienisch	-10.7039
▁säulen	-10.7039
▁wahlbezirk	-10.704
▁jones	-10.7041
ballet	-10.7041
▁hauptrolle	-10.7043
▁errichten	-10.7044
schutzgebietes	-10.7044
▁1866	-10.7045
▁1883	-10.7045
▁reaktion	-10.7047
▁manuell	-10.7049
▁1850	-10.7053
politische	-10.7057
▁christus	-10.7062
achse	-10.7062
▁1500	-10.7063
▁sac	-10.7063
▁klang	-10.707
▁drama	-10.7073
▁vol	-10.7077
hop	-10.708
▁einzug	-10.7089
brechen	-10.7089
▁zeche	-10.7092
▁roll	-10.7092
bestand	-10.7092
▁anhand	-10.7101
▁120	-10.7103
▁gör	-10.7104
▁untersuchungen	-10.7108
▁öl	-10.7109
▁stunden	-10.7111
▁ausgestellt	-10.7114
▁juristische	-10.7122
aktiv	-10.7123
▁wetter	-10.7124
rös	-10.7133
▁voraus	-10.7137
krise	-10.714
▁biathlet	-10.7148
gler	-10.7149
revier	-10.715
▁variante	-10.7153
▁philip	-10.7163
▁ordnung	-10.7188
vol	-10.7189
dow	-10.7191
gegen	-10.7196
denkmalliste	-10.7209
deutschland	-10.722
▁genannte	-10.7221
tausend	-10.7221
▁francis	-10.7233
▁ergänzt	-10.7236
▁gefängnis	-10.7236
▁getötet	-10.7236
▁rapids	-10.7236
▁verhindern	-10.7236
▁geblieben	-10.7236
▁himmel	-10.7236
▁kollmann	-10.7236
nominierung	-10.7236
strategie	-10.7236
▁breslau	-10.7236
▁buntsandstein	-10.7236
▁vorbereitung	-10.7236
▁existieren	-10.7236
▁corps	-10.7237
streu	-10.7237
▁unterteilt	-10.7237
▁herausgegeben	-10.7237
▁playoff	-10.7237
▁stiel	-10.7239
▁hochmoor	-10.724
ziel	-10.724
bürger	-10.724
▁bundeswehr	-10.724
▁1873	-10.7244
▁1871	-10.7244
▁1849	-10.7245
▁1888	-10.7246
▁altstadt	-10.7248
ologen	-10.7249
▁jury	-10.725
kli	-10.7254
▁steiger	-10.7254
ová	-10.7254
▁kader	-10.7256
▁sho	-10.7259
▁feierte	-10.7261
▁abgebaut	-10.7264
ington	-10.7265
▁waffe	-10.7267
back	-10.7268
dreieck	-10.727
▁habilitierte	-10.7271
letzte	-10.7276
▁600	-10.728
termin	-10.7281
gründen	-10.7284
▁hunt	-10.729
▁ausbau	-10.7294
▁angeordnet	-10.7294
wiss	-10.7301
▁ausstattung	-10.7301
▁städten	-10.7302
▁auflösung	-10.7305
▁höchst	-10.7306
woche	-10.7308
▁ss	-10.7311
▁bundesstaates	-10.7316
▁heran	-10.7344
▁spanisch	-10.7346
▁komitats	-10.7348
▁bände	-10.7353
▁papier	-10.7354
▁linke	-10.7354
▁feind	-10.7369
▁gladbach	-10.7373
▁manager	-10.7374
▁spiegel	-10.7393
messung	-10.7399
kara	-10.7402
8)	-10.7404
ophi	-10.7405
diözese	-10.7414
▁bestehenden	-10.7415
büro	-10.7416
kritik	-10.7416
müller	-10.7416
komitees	-10.7417
▁jäger	-10.7417
horst	-10.7419
freiheit	-10.742
roman	-10.7423
auftrag	-10.7423
▁betracht	-10.7427
keller	-10.7427
sendung	-10.7433
afrikanische	-10.7433
head	-10.7433
präsidenten	-10.7434
nieder	-10.7437
▁preußische	-10.7437
bil	-10.7438
▁[...]	-10.744
▁argentinien	-10.744
▁budapest	-10.744
▁einschließlich	-10.744
▁joachim	-10.744
▁pseudonym	-10.744
▁restaurant	-10.744
▁äußere	-10.744
frequenz	-10.744
▁testament	-10.744
▁manchmal	-10.744
patriarch	-10.744
▁angehörte	-10.744
▁leistete	-10.744
schraube	-10.744
▁magnus	-10.744
▁andré	-10.744
▁ausgebildet	-10.744
▁premierminister	-10.7441
▁beauftragt	-10.7441
▁staatsbürger	-10.7442
▁forderte	-10.7443
▁sektion	-10.7446
▁haar	-10.7447
▁1894	-10.7448
sozialisten	-10.745
▁1864	-10.745
gia	-10.7451
▁1860	-10.7452
▁lng	-10.7458
▁mangel	-10.7459
▁force	-10.746
▁kontrolle	-10.7461
▁integriert	-10.7463
▁gefallen	-10.7464
▁dank	-10.7464
▁hugo	-10.7467
bit	-10.7472
▁verfassung	-10.7473
▁ausgebaut	-10.7473
▁miteinander	-10.7476
▁sir	-10.7476
▁exemplare	-10.7478
▁stadtrat	-10.7478
tv	-10.7483
point	-10.7489
wirt	-10.7497
berlin	-10.7501
▁sms	-10.7505
▁christi	-10.7507
begriffs	-10.7514
rohr	-10.7521
▁ausdruck	-10.7524
▁hersteller	-10.7525
▁mind	-10.7526
drei	-10.7529
▁terra	-10.7537
▁kommend	-10.7542
▁panzer	-10.7553
▁weltmeister	-10.756
▁qualifikations	-10.756
▁kahl	-10.7561
▁stücke	-10.7565
leitzahl	-10.7567
▁vii	-10.7583
▁leid	-10.7595
▁reiste	-10.7599
▁turin	-10.7599
▁heiß	-10.7612
waffen	-10.7612
▁blut	-10.7616
raf	-10.7621
▁schlei	-10.7624
französisch	-10.7628
konzert	-10.7628
▁beschlossen	-10.7629
fraktion	-10.763
basis	-10.7635
klein	-10.7636
luft	-10.7646
ija	-10.7647
▁eingestuft	-10.7648
▁luftangriff	-10.7648
▁orchestra	-10.7648
▁santiago	-10.7648
▁verbessert	-10.7648
▁augsburg	-10.7648
▁1862	-10.7648
▁ottawa	-10.7648
▁konstant	-10.7648
▁wagner	-10.7648
▁versenkt	-10.7649
▁armenien	-10.7649
▁mittelmeer	-10.7649
▁fdp	-10.7649
▁uefa	-10.7649
▁sorgte	-10.765
▁airport	-10.765
stad	-10.7652
▁meistertitel	-10.7652
▁grabmal	-10.7655
▁obergeschoss	-10.7655
▁spricht	-10.7656
▁boston	-10.7656
▁spielfilm	-10.766
▁fabre	-10.766
▁report	-10.7668
utter	-10.7673
▁island	-10.7674
real	-10.7677
▁richtig	-10.768
▁textil	-10.7681
▁carol	-10.7689
▁manga	-10.769
▁sang	-10.771
quelle	-10.7717
▁nutzte	-10.7721
breite	-10.7733
gott	-10.7737
▁mode	-10.7737
strahl	-10.7744
▁treu	-10.7745
truppen	-10.7748
▁stör	-10.775
▁studie	-10.7754
▁versuchs	-10.7756
▁alternative	-10.7759
hält	-10.7761
▁verwandte	-10.7776
▁fällt	-10.7792
▁status	-10.7796
maria	-10.7798
▁verzichtete	-10.7802
fertigung	-10.782
▁bildende	-10.782
paar	-10.7824
finale	-10.7831
architekt	-10.7844
▁tank	-10.7845
beginn	-10.7846
nimmt	-10.7846
größe	-10.7846
▁angebot	-10.785
schreibung	-10.7852
▁stadion	-10.7858
verbrauch	-10.7859
fähigkeit	-10.7859
▁interview	-10.7861
▁mönchengladbach	-10.7861
▁schmölln	-10.7861
▁unterstützen	-10.7861
▁flüchtlings	-10.7861
▁istanbul	-10.7861
▁professionelle	-10.7861
▁gipfel	-10.7861
▁überliefert	-10.7861
▁duisburg	-10.7861
▁temple	-10.7861
▁gebirgs	-10.7861
▁edition	-10.7861
▁office	-10.7861
▁spreng	-10.7861
▁angrenzende	-10.7861
▁unterscheiden	-10.7862
rüstung	-10.7862
▁victor	-10.7862
▁wirklich	-10.7864
▁vielfach	-10.7864
▁berufliche	-10.7865
comp	-10.7866
▁thron	-10.7867
▁datiert	-10.7868
▁1881	-10.787
▁1867	-10.7872
▁1840	-10.7874
▁mul	-10.7879
▁brandon	-10.788
▁segel	-10.7882
▁rede	-10.7885
▁dj	-10.7888
▁circ	-10.789
▁nochmal	-10.7893
zahlung	-10.7897
▁bergbau	-10.7898
▁reste	-10.7905
här	-10.7907
ih	-10.7908
▁durchbruch	-10.7911
dampfer	-10.7915
▁aufgegeben	-10.7915
weder	-10.7922
▁unterrichts	-10.7923
spor	-10.7925
▁gedichte	-10.7926
kommando	-10.7927
▁einfachen	-10.7932
blüt	-10.794
acc	-10.7942
marie	-10.7944
amerikaner	-10.7945
▁ökonom	-10.7946
schreiber	-10.7949
▁fehlt	-10.796
fond	-10.7965
sey	-10.7965
strafe	-10.797
▁formel	-10.7976
▁offizielle	-10.7978
nicht	-10.798
klage	-10.798
iano	-10.7995
▁beendet	-10.7999
▁palast	-10.8
▁guy	-10.801
▁kommunistische	-10.8016
sicherung	-10.802
▁dauerte	-10.8021
▁heu	-10.8021
bohr	-10.8031
▁route	-10.804
gua	-10.8046
▁monta	-10.8047
lieferung	-10.8054
▁liegenden	-10.8054
▁rekord	-10.8059
▁julia	-10.8063
zweck	-10.807
tempel	-10.8071
▁52	-10.8072
angelegenheiten	-10.8079
▁anerkennung	-10.8079
▁bemüht	-10.8079
▁bizzarrini	-10.8079
▁kämpfte	-10.8079
▁restauriert	-10.8079
▁verbesserung	-10.8079
▁würzburg	-10.8079
wörter	-10.8079
▁ipsf	-10.8079
▁sonntag	-10.8079
▁pedro	-10.8079
▁uniform	-10.8079
▁extrem	-10.8079
▁erkannt	-10.8079
▁dunkle	-10.8079
▁rennserie	-10.8079
verständnis	-10.8079
prediger	-10.8079
▁automobil	-10.808
▁schlecht	-10.808
▁stürmer	-10.808
▁onkel	-10.8081
▁weimar	-10.8083
▁einsätzen	-10.8085
▁sagte	-10.8086
▁fachwerk	-10.8088
▁kairo	-10.8088
lehre	-10.8096
bé	-10.8099
regel	-10.81
city	-10.8103
▁nation	-10.811
▁orden	-10.8119
▁bestehende	-10.812
▁darstellt	-10.8124
▁soldat	-10.8124
dame	-10.8125
▁grünland	-10.8125
▁lern	-10.8126
▁software	-10.8128
▁bismarck	-10.8143
gottesdienst	-10.8143
lith	-10.8144
▁kaufte	-10.8149
▁gouverneur	-10.8149
▁ausgeführt	-10.815
▁bestellt	-10.8156
etta	-10.8169
▁schäden	-10.817
boden	-10.8171
auto	-10.8173
▁decken	-10.8176
▁sank	-10.8178
▁pionier	-10.8179
▁redakteur	-10.8181
▁wege	-10.8185
▁einstellung	-10.8193
fil	-10.8206
▁bock	-10.821
▁zufolge	-10.8219
▁konsul	-10.8219
▁ärzte	-10.823
bass	-10.8233
800	-10.8235
▁schweizerische	-10.8262
gast	-10.8263
▁batterie	-10.827
▁johanna	-10.8275
▁reit	-10.8276
nehmer	-10.8277
immer	-10.8278
▁kranken	-10.8286
design	-10.8296
wilhelm	-10.8296
bürgermeister	-10.8297
säule	-10.8298
schauspieler	-10.8298
egislaturperiode	-10.8301
koordinaten	-10.8301
▁begegnung	-10.8301
▁bleibt	-10.8301
▁cambridge	-10.8301
▁cloppenburg	-10.8301
▁ereignisse	-10.8301
▁hildesheim	-10.8301
▁jesuiten	-10.8301
▁nämlich	-10.8301
▁reguläre	-10.8301
▁slowakei	-10.8301
▁wallhalbinsel	-10.8301
pyramide	-10.8301
▁maßgeblich	-10.8301
▁janeiro	-10.8301
▁entstammte	-10.8301
▁arthur	-10.8301
▁geändert	-10.8301
▁veränderungen	-10.8301
fächer	-10.8301
▁ausscheiden	-10.8301
▁caesar	-10.8302
▁violin	-10.8302
schmuck	-10.8302
▁installiert	-10.8302
▁gottfried	-10.8302
▁hedwig	-10.8302
▁datenbank	-10.8303
▁orange	-10.8303
▁drehbuch	-10.8304
hiro	-10.8305
▁backstein	-10.8305
▁analog	-10.8306
▁festgelegt	-10.8306
▁kirchengemeinde	-10.8307
▁beschränkt	-10.8307
▁1846	-10.8308
▁feiern	-10.8308
▁ligue	-10.8309
▁zugun	-10.831
▁1887	-10.8311
▁1854	-10.8311
▁philosophischen	-10.8312
▁lob	-10.8315
▁begründete	-10.832
▁endspiel	-10.8322
▁gemeindegebiet	-10.8326
tico	-10.8335
technische	-10.8336
eaux	-10.8339
▁chu	-10.8343
▁dreimal	-10.8345
▁münch	-10.8351
ichi	-10.8355
▁doppelt	-10.8363
▁folgejahr	-10.8369
▁menschliche	-10.8378
▁elementar	-10.8378
▁befehl	-10.8378
frist	-10.8388
▁rob	-10.8393
▁kommandant	-10.84
▁scheint	-10.8403
greif	-10.8404
anda	-10.8407
atti	-10.8409
forum	-10.8409
▁gewässer	-10.8411
lund	-10.8415
ligist	-10.8418
▁qualifizierte	-10.8421
▁mailand	-10.8428
▁berühmt	-10.8433
▁stammende	-10.8438
▁sommerspielen	-10.8439
▁siegte	-10.8439
▁bedarf	-10.8448
▁western	-10.8459
▁technologie	-10.8465
rupp	-10.8474
▁indische	-10.8476
▁xii	-10.8478
main	-10.848
▁erzähl	-10.8485
▁student	-10.8489
▁opposition	-10.8495
völkerungsdichte	-10.8506
▁175	-10.8508
▁colin	-10.8509
afrika	-10.8515
▁brut	-10.8519
hey	-10.8523
▁endlich	-10.8524
abhängig	-10.8524
galerie	-10.8527
kapitän	-10.8527
gültig	-10.8527
gewerbe	-10.8527
departement	-10.8528
eremaeozetes	-10.8528
▁absolvieren	-10.8528
▁asteroid	-10.8528
▁bariloche	-10.8528
▁besiedelt	-10.8528
▁brasilianische	-10.8528
▁cicogna	-10.8528
▁gefärbt	-10.8528
▁getroffen	-10.8528
▁jüngste	-10.8528
▁pröfrock	-10.8528
▁queensland	-10.8528
sprüche	-10.8528
▁madrid	-10.8528
▁prinzessin	-10.8528
▁systematik	-10.8528
▁stephan	-10.8528
▁leonard	-10.8528
▁behaart	-10.8528
künstler	-10.8528
elemente	-10.8529
▁stattfinden	-10.8529
▁ostpreußen	-10.8529
mütze	-10.8529
▁kongresswahl	-10.8529
▁lautet	-10.853
▁bedeutendste	-10.853
persönlichkeiten	-10.8531
▁überzeugen	-10.8532
ursache	-10.8533
▁dünn	-10.8534
▁kirchliche	-10.8534
wirken	-10.8535
▁änderte	-10.8535
▁bibel	-10.8536
▁1868	-10.8539
▁wiederwahl	-10.8543
▁iso	-10.8545
zwischenzeitlich	-10.8545
komitee	-10.8554
▁schreib	-10.8556
dolph	-10.8559
lex	-10.8561
▁fili	-10.8561
meier	-10.8572
core	-10.8575
▁sturm	-10.8579
▁bestände	-10.858
▁herum	-10.8588
▁hausa	-10.8596
_2	-10.8598
versuch	-10.8608
pfad	-10.8612
▁fahrer	-10.8617
▁meeres	-10.8618
reuth	-10.8621
▁damen	-10.8622
▁berühmte	-10.8624
ummer	-10.8628
▁erwachsenen	-10.863
▁spannung	-10.8635
▁aufklärung	-10.8635
▁forta	-10.8639
▁unsere	-10.864
▁spalte	-10.8642
feucht	-10.8643
▁periode	-10.8646
▁kritisch	-10.8648
agua	-10.8648
▁jud	-10.8655
ness	-10.8659
▁distanz	-10.8664
aktivität	-10.8667
▁mak	-10.8673
uff	-10.8681
▁unterzeichnete	-10.8685
start	-10.8695
▁manche	-10.8695
▁erzählt	-10.8724
▁sowjet	-10.8736
▁emeritiert	-10.8737
itsch	-10.8745
▁betroffen	-10.8761
resultat	-10.8761
zyklus	-10.8761
zylinder	-10.8761
▁auswärtige	-10.8761
▁chinesischen	-10.8761
▁council	-10.8761
▁departamento	-10.8761
▁erwähnung	-10.8761
▁français	-10.8761
▁françois	-10.8761
▁mitbegründer	-10.8761
▁sämtliche	-10.8761
▁verbindet	-10.8761
▁wrestling	-10.8761
▁ägyptische	-10.8761
▁gelehrt	-10.8761
▁alfons	-10.8761
▁ernennung	-10.8761
▁cesare	-10.8761
▁oxford	-10.8761
▁ursula	-10.8761
▁darmstadt	-10.8761
▁stieß	-10.8761
▁gearbeitet	-10.8761
▁bridge	-10.8761
trommel	-10.8761
▁golf	-10.8761
▁mounds	-10.8761
▁besiegte	-10.8761
▁xi	-10.8761
kleidung	-10.8761
▁bundesrepublik	-10.8761
▁brown	-10.8762
▁weltrangliste	-10.8762
▁sprintrennen	-10.8763
▁mah	-10.8763
▁agent	-10.8763
▁manchester	-10.8763
▁europapokal	-10.8764
analyse	-10.8765
▁betreibt	-10.8766
▁victoria	-10.8766
staffel	-10.8767
▁lebensraum	-10.8767
stadion	-10.8767
chirurgie	-10.8767
rechtlich	-10.8768
▁1851	-10.877
▁finanziert	-10.8772
▁light	-10.8774
▁einwohnerzahl	-10.8775
vogel	-10.8776
käufe	-10.8777
▁1830	-10.8778
▁grundschule	-10.8781
▁südafrika	-10.8783
voraussetzung	-10.8789
badmintonspieler	-10.879
▁10.000	-10.8791
flieger	-10.8796
sozialismus	-10.88
▁verlief	-10.88
▁sauer	-10.8805
gate	-10.8808
▁blue	-10.8812
▁etablierte	-10.8813
stürm	-10.8814
▁angeschlossen	-10.8817
▁kuh	-10.882
▁ergibt	-10.882
server	-10.8822
▁53	-10.8826
gebaut	-10.8831
▁beat	-10.8838
spektive	-10.8838
▁kapazität	-10.8859
▁kassel	-10.8868
▁holte	-10.888
▁vizemeister	-10.8905
▁zweigt	-10.8909
wache	-10.8936
holm	-10.894
▁hochschul	-10.8947
▁verfügbar	-10.8947
hoya	-10.8948
▁wandte	-10.8955
▁gent	-10.897
sgesuch	-10.8975
▁wäh	-10.8975
lbach	-10.898
▁westafrika	-10.8984
ology	-10.8997
▁komp	-10.8997
expedition	-10.8999
torhüter	-10.8999
verzeichnis	-10.8999
▁anfänge	-10.8999
▁argentinische	-10.8999
▁heilbronn	-10.8999
▁municipio	-10.8999
▁nsdap	-10.8999
▁töchter	-10.8999
▁äußerst	-10.8999
dynamische	-10.8999
gefügt	-10.8999
▁cricket	-10.8999
▁skandal	-10.8999
kompetenz	-10.8999
▁abgerissen	-10.8999
▁örtliche	-10.8999
▁oruro	-10.8999
▁kurzzeitig	-10.8999
gestorben	-10.8999
▁erfurt	-10.8999
kanzler	-10.8999
▁sumpf	-10.8999
wurf	-10.8999
dirigent	-10.8999
▁behauptet	-10.8999
▁römer	-10.8999
▁auswirkungen	-10.8999
schlesien	-10.8999
▁bmw	-10.9
schüsse	-10.9
zentren	-10.9002
▁tibet	-10.9002
stift	-10.9003
gekauft	-10.9005
▁event	-10.9005
▁autobahn	-10.9005
steuer	-10.9007
▁reichstag	-10.9008
seminar	-10.9009
assistent	-10.901
▁acker	-10.901
provinz	-10.9011
▁1877	-10.9012
▁vorteil	-10.9013
schwerpunkt	-10.9014
▁szenen	-10.9014
▁stadtmauer	-10.9017
▁belagerung	-10.9018
▁wandel	-10.9022
▁sanierung	-10.9022
▁lohn	-10.9029
stahl	-10.9031
▁fab	-10.9045
▁nennt	-10.9048
▁valle	-10.905
▁kopie	-10.9052
▁erhebung	-10.9057
▁six	-10.9061
▁dresd	-10.9066
▁umfassen	-10.9068
▁minute	-10.907
▁yu	-10.9072
▁sicherte	-10.9098
▁vorschlag	-10.91
▁sound	-10.9105
quo	-10.9121
▁feuchte	-10.9122
ordens	-10.9126
▁verbliebene	-10.9131
▁miller	-10.9133
▁700	-10.9143
▁beitrag	-10.9144
break	-10.9145
▁luci	-10.9151
hack	-10.9153
spirit	-10.9157
waltungseinheit	-10.9162
gehende	-10.9164
▁junior	-10.9177
ifikation	-10.9206
gram	-10.9211
zuführen	-10.9211
▁insolvenz	-10.9212
▁kaiserliche	-10.9221
▁boy	-10.9233
▁erwerb	-10.9242
befehlshaber	-10.9243
gerechnet	-10.9243
wahrnehmung	-10.9243
▁abgelöst	-10.9243
▁beobachtung	-10.9243
▁brüssel	-10.9243
▁jörg	-10.9243
▁kommerziell	-10.9243
▁paderborn	-10.9243
▁schornstein	-10.9243
▁segment	-10.9243
▁aufgeteilt	-10.9243
▁nahrung	-10.9243
▁zieht	-10.9243
▁gemischt	-10.9243
▁litauen	-10.9243
▁stattfand	-10.9243
▁gedreht	-10.9243
▁terminal	-10.9243
▁osmanische	-10.9243
▁manila	-10.9243
▁weltcuprennen	-10.9244
▁angetrieben	-10.9244
▁zerstörung	-10.9244
▁albrecht	-10.9244
icus	-10.9244
▁ffh	-10.9245
▁soeda	-10.9247
▁kaiserreich	-10.9247
vergaser	-10.9247
▁darstellen	-10.9248
▁detail	-10.9251
bilanz	-10.9252
▁elena	-10.9252
übertragung	-10.9254
▁sebastian	-10.9257
▁eugen	-10.9259
turbine	-10.9259
management	-10.9259
▁funk	-10.9262
▁enkel	-10.9265
▁epi	-10.9267
▁beleg	-10.9271
▁indiana	-10.9272
▁bewertung	-10.9273
▁shu	-10.9275
äcker	-10.9281
▁robin	-10.9282
georg	-10.9284
▁kah	-10.9286
häfen	-10.9287
▁vorjahr	-10.9292
▁wohnhaus	-10.931
▁bergwerk	-10.933
grube	-10.933
brach	-10.9343
▁stich	-10.9343
▁verblieb	-10.9355
▁geringere	-10.936
▁kz	-10.9361
▁2,5	-10.9364
▁umgang	-10.9364
▁zeichnete	-10.9376
werbung	-10.9379
krone	-10.9404
neustädte	-10.9409
▁leucht	-10.9412
durchschnittlich	-10.9416
ücke	-10.9418
krö	-10.9461
▁alb	-10.9469
chirurg	-10.9485
bald	-10.9486
▁unten	-10.9488
tana	-10.949
schneide	-10.9492
kollektiv	-10.9493
staatsanwalt	-10.9493
▁entsteht	-10.9493
▁fühler	-10.9493
▁koalition	-10.9493
▁täglich	-10.9493
▁zusammengefasst	-10.9493
kräftig	-10.9493
▁gestiftet	-10.9493
▁alliierten	-10.9493
▁darauffolgende	-10.9493
▁kontinent	-10.9493
▁sydney	-10.9493
▁monument	-10.9493
▁veranstaltet	-10.9493
▁vincent	-10.9493
▁sätze	-10.9493
▁editor	-10.9493
▁rolf	-10.9493
▁erlitt	-10.9493
bibli	-10.9493
▁richtete	-10.9493
▁pension	-10.9493
▁germanistik	-10.9493
▁cross	-10.9493
quartier	-10.9494
source	-10.9494
▁redaktion	-10.9494
▁aufmerksamkeit	-10.9494
▁etappe	-10.9495
▁fernand	-10.9499
▁granit	-10.95
▁1858	-10.9502
▁brunnen	-10.9504
förder	-10.9504
▁1863	-10.9504
▁1876	-10.9504
▁sparta	-10.9504
▁langsam	-10.9506
▁kollegen	-10.9506
▁hinsicht	-10.9508
bischof	-10.9512
problem	-10.9515
bühne	-10.9516
konstruktion	-10.9516
=	-10.9516
nutzung	-10.9516
mindest	-10.9517
europäische	-10.9517
rekord	-10.9518
energie	-10.9518
▁brust	-10.952
▁johnson	-10.9523
wood	-10.9524
▁hinein	-10.9526
▁umfang	-10.9527
abkommen	-10.9533
seh	-10.9534
▁mittelfeld	-10.9544
▁austausch	-10.9548
▁haut	-10.9549
▁überhaupt	-10.955
öß	-10.9562
400	-10.9563
▁drittel	-10.9564
▁marco	-10.9571
web	-10.9572
zählung	-10.9574
▁vorgeschichte	-10.9581
schießen	-10.9582
volk	-10.9584
▁indianer	-10.9586
▁kau	-10.9588
▁pest	-10.959
werkzeug	-10.9595
▁zufluss	-10.9597
▁biathletin	-10.9604
isation	-10.9605
▁thom	-10.9606
▁kiss	-10.9611
firma	-10.9613
phag	-10.9616
▁interna	-10.9632
▁vorname	-10.9638
dichte	-10.9651
▁cass	-10.9652
fliegen	-10.9652
geschütz	-10.9655
zusetzen	-10.9669
▁unterart	-10.9678
legte	-10.9703
▁bunt	-10.9729
ologischen	-10.9739
▁wüst	-10.9739
colo	-10.9741
laufenden	-10.9742
englisch	-10.9744
▁bewusst	-10.9747
filipinos	-10.9749
gesiedelt	-10.9749
geworfen	-10.9749
pädagoge	-10.9749
▁brunswick	-10.9749
▁katharina	-10.9749
▁konkurrenz	-10.9749
▁marseille	-10.9749
▁pakistan	-10.9749
▁technology	-10.9749
mörder	-10.9749
▁2009/10	-10.9749
▁eindeutig	-10.9749
▁ernährung	-10.9749
▁finnland	-10.9749
▁trennung	-10.9749
distrikt	-10.9749
▁kommune	-10.9749
▁verhaftet	-10.9749
heuristik	-10.9749
▁nachgewiesen	-10.9749
école	-10.9749
vulkan	-10.9749
▁ehrungen	-10.9749
▁hochschullehrer	-10.9749
▁danzig	-10.975
▁volksrepublik	-10.975
interpret	-10.975
▁vorderflügel	-10.975
▁zerstörer	-10.975
▁mauric	-10.975
▁identisch	-10.9751
▁ethnisch	-10.9751
brüche	-10.9751
täler	-10.9751
▁übersetzt	-10.9752
▁glaubens	-10.9753
▁höf	-10.9754
verarbeitung	-10.9755
▁selbstständig	-10.9755
▁heimatverein	-10.9758
▁hierfür	-10.9758
▁vieh	-10.9758
▁indigene	-10.9758
sidi	-10.9758
▁comic	-10.9759
▁1865	-10.9759
▁nieser	-10.976
schacht	-10.976
▁kämpfen	-10.976
▁nikon	-10.976
▁1886	-10.9761
▁bueno	-10.9764
▁abgeleitet	-10.9765
▁dortmund	-10.9768
▁verringer	-10.977
produkt	-10.9771
▁adler	-10.9772
jäger	-10.9778
professor	-10.9779
▁erteilt	-10.9779
▁chilenische	-10.978
▁nigeria	-10.9781
▁350	-10.9783
ungarn	-10.9786
▁durchsetzen	-10.9792
▁genre	-10.9793
laufbahn	-10.9793
▁spar	-10.9799
▁unfall	-10.9801
▁irische	-10.9806
mangel	-10.9809
▁binnen	-10.981
▁mahl	-10.9812
▁box	-10.9813
▁mike	-10.9821
haar	-10.9824
ompert	-10.9824
▁rückspiel	-10.9831
ström	-10.9831
▁leih	-10.9831
▁grafik	-10.9835
▁drehte	-10.985
▁stütz	-10.9861
cé	-10.9864
▁konzentrierte	-10.9865
beute	-10.9866
▁porno	-10.9874
kämpfer	-10.9874
ollegium	-10.9876
psycholog	-10.9884
▁schulz	-10.9885
▁restliche	-10.9891
dreh	-10.9899
▁wiki	-10.9908
teilige	-10.9923
guss	-10.9933
kader	-10.9939
becher	-10.9945
▁cali	-10.9963
▁fehlende	-10.9963
haltig	-10.9981
▁komplexe	-10.9994
rstandsmitglied	-11.0009
kontinuität	-11.0012
▁bezieht	-11.0012
▁definition	-11.0012
▁diskussion	-11.0012
▁erfährt	-11.0012
▁florida	-11.0012
▁gbagbo	-11.0012
▁gekennzeichnet	-11.0012
▁hamilton	-11.0012
▁inspiriert	-11.0012
▁kamphues	-11.0012
▁überraschend	-11.0012
▁antonescu	-11.0012
▁befestigt	-11.0012
▁dürfte	-11.0012
▁lüneburg	-11.0012
▁madison	-11.0012
▁malkwitz	-11.0012
▁innovation	-11.0012
▁nunmehr	-11.0012
▁palais	-11.0012
▁befreiung	-11.0012
▁stereotyp	-11.0012
▁bearbeitet	-11.0013
▁tageszeitung	-11.0013
▁wählte	-11.0013
▁anwalt	-11.0013
urlaub	-11.0013
▁einzugsgebiet	-11.0013
▁debütalbum	-11.0013
behälter	-11.0014
▁grabsteine	-11.0014
▁holding	-11.0014
kompanie	-11.0014
▁hessische	-11.0014
▁erzielen	-11.0014
koppel	-11.0014
▁ermöglichen	-11.0014
▁generalsekretär	-11.0014
▁franklin	-11.0016
▁islam	-11.0017
▁stammspieler	-11.0017
▁enthielt	-11.0017
▁väst	-11.0019
▁südseite	-11.0023
▁betreiben	-11.0023
verpflichtung	-11.0025
geleitet	-11.0032
verleih	-11.0035
▁gegenwart	-11.0038
treppe	-11.004
▁abgegeben	-11.0041
▁love	-11.0043
▁komponierte	-11.0044
formica	-11.0045
batterie	-11.0048
geschlecht	-11.0049
schwarz	-11.0049
▁copa	-11.005
kurz	-11.0052
▁freizeit	-11.0052
▁ausländische	-11.0059
▁stone	-11.0059
▁lebensjahr	-11.0068
heben	-11.0068
schriftstellerin	-11.0071
foto	-11.0074
krimi	-11.0074
▁liber	-11.0076
▁anforderung	-11.0082
▁staates	-11.0084
▁südost	-11.0086
▁amtierende	-11.0097
▁bruno	-11.0114
schickt	-11.0115
birg	-11.0118
▁home	-11.0123
▁neuro	-11.0131
▁stationiert	-11.0133
▁roy	-11.0153
▁lud	-11.0163
▁nova	-11.0164
schifffahrt	-11.0174
▁indian	-11.0183
▁leitet	-11.0189
▁casa	-11.0193
pack	-11.0194
▁gedicht	-11.021
▁oftmal	-11.0211
▁oslo	-11.0211
eshalb	-11.0222
täter	-11.023
brenn	-11.0233
wacht	-11.0236
branche	-11.0242
▁lieferte	-11.0254
▁begründet	-11.0259
▁steg	-11.0268
training	-11.0279
pfälzer	-11.0282
▁potsdam	-11.0282
asclepias	-11.0282
massachusetts	-11.0282
sehenswürdigkeit	-11.0282
▁california	-11.0282
▁entwässert	-11.0282
▁gesichert	-11.0282
▁gewidmet	-11.0282
▁hölzerne	-11.0282
▁konzipiert	-11.0282
▁oppersdorff	-11.0282
▁palästina	-11.0282
▁quakenbrück	-11.0282
▁toyota	-11.0282
▁unterbrechung	-11.0282
▁verteidigen	-11.0282
▁wladimir	-11.0282
▁wuppertal	-11.0282
slowakisch	-11.0282
▁beruht	-11.0282
▁douglas	-11.0282
▁justiz	-11.0282
▁metropolitan	-11.0282
▁angegriffen	-11.0282
▁primär	-11.0283
▁stumpf	-11.0283
▁elfenbeinküste	-11.0283
▁rechteckige	-11.0283
▁erneuert	-11.0283
▁zimmermann	-11.0283
▁luzern	-11.0283
▁andrew	-11.0283
▁valentin	-11.0283
▁bevorzugt	-11.0283
▁kandidatur	-11.0283
▁schlank	-11.0283
fügen	-11.0283
▁streng	-11.0283
▁gäste	-11.0283
▁highway	-11.0284
▁rittergut	-11.0284
▁bremer	-11.0284
▁aufgebot	-11.0284
▁vorlagen	-11.0285
▁stade	-11.0285
▁entwurf	-11.0285
▁staatsarchiv	-11.0286
▁fleisch	-11.0287
korps	-11.0289
▁nebenfluss	-11.0293
▁mehrmals	-11.0294
▁1869	-11.0294
▁einheimische	-11.0295
▁kunstgeschichte	-11.0298
▁unterrichtet	-11.0299
vorhaben	-11.0299
schütte	-11.0301
posit	-11.0305
▁1815	-11.0305
▁orientiert	-11.0308
bourg	-11.0309
ografische	-11.031
▁bekanntheit	-11.0311
▁gramm	-11.0313
▁kai	-11.0314
▁lord	-11.0316
schreiben	-11.0327
doppel	-11.0327
international	-11.0327
bundesliga	-11.0329
förderung	-11.0331
operation	-11.0334
beschreibung	-11.0336
▁heimspiel	-11.034
▁mensch	-11.0343
▁eingebaut	-11.0345
lapp	-11.0353
▁andrea	-11.0355
italia	-11.0357
einsatz	-11.0357
▁iran	-11.0359
modul	-11.0363
▁finanziell	-11.0364
▁tony	-11.0375
agentur	-11.0375
▁nick	-11.0378
▁ever	-11.0386
fahrzeuge	-11.0388
xx	-11.0392
▁nordost	-11.0393
▁aires	-11.0396
▁dahl	-11.0411
▁opp	-11.0419
sängerin	-11.0424
▁nerv	-11.0427
teilnahme	-11.043
▁studieren	-11.0431
dwig	-11.0434
▁heck	-11.0454
▁alba	-11.0462
papa	-11.0463
▁nutzt	-11.0465
ogene	-11.0474
▁droh	-11.0477
tracht	-11.0496
grö	-11.0511
ivers	-11.0512
lassung	-11.0527
artikel	-11.0532
witt	-11.0533
viren	-11.0541
gewölbe	-11.0542
gebrochen	-11.0544
▁peru	-11.0553
fahrzeug	-11.0553
▁anfänglich	-11.056
▁außerordentlich	-11.056
▁barcelona	-11.056
▁beobachtet	-11.056
▁breisgau	-11.056
▁drittklassig	-11.056
▁fournier	-11.056
▁gemeinnützige	-11.056
▁jacques	-11.056
▁populär	-11.056
▁rotterdam	-11.056
▁tschechische	-11.056
▁vilâyet	-11.056
▁business	-11.056
▁wermsdorf	-11.056
▁delegation	-11.056
▁tokio	-11.056
rennfahrer	-11.056
▁francesco	-11.056
▁viktor	-11.056
▁ozean	-11.056
▁commun	-11.0561
▁bringt	-11.0561
▁geographische	-11.0561
▁centre	-11.0561
▁bebauung	-11.0562
▁games	-11.0562
▁befreit	-11.0562
▁vorzeitig	-11.0562
▁filmregisseur	-11.0563
▁ausreichend	-11.0563
▁trotzdem	-11.0563
nuntius	-11.0563
▁wohnte	-11.0565
▁fortsetzung	-11.0565
▁rückzug	-11.0566
▁dietrich	-11.0566
▁eigentum	-11.0567
▁steinbruch	-11.0568
bomben	-11.057
schwanz	-11.057
▁rené	-11.0575
▁zusammenschluss	-11.0575
▁erzeugt	-11.058
▁heilig	-11.0585
▁work	-11.0586
▁exil	-11.0587
▁bieten	-11.0588
kanuri	-11.0594
spule	-11.0595
▁handschrift	-11.0598
▁neustadt	-11.0605
▁basil	-11.0606
▁order	-11.0609
▁dekan	-11.0609
▁girl	-11.061
verteidigung	-11.0612
brüder	-11.0613
stunden	-11.0614
jüdische	-11.0615
▁übergeben	-11.0627
planck	-11.0627
▁bergisch	-11.0628
gekommen	-11.0629
▁abschloss	-11.0631
▁rail	-11.0636
media	-11.0636
entry	-11.0638
▁edel	-11.0644
▁berücksichtigt	-11.0647
▁kran	-11.0659
▁viersen	-11.0663
▁förderte	-11.067
union	-11.0677
▁profil	-11.0687
einhalb	-11.0697
▁latin	-11.0698
▁gefolg	-11.0699
weser	-11.0708
helfer	-11.0723
▁cris	-11.0724
gelb	-11.0731
play	-11.074
shima	-11.0742
grau	-11.0759
gestein	-11.0767
jährig	-11.0779
sänger	-11.0805
▁dell	-11.0807
▁bai	-11.0813
göt	-11.0816
▁human	-11.0816
gezeichnet	-11.0816
treiber	-11.0835
läufig	-11.0836
▁assist	-11.0842
lutherische	-11.0844
corporate	-11.0846
gouvernement	-11.0846
munizipal	-11.0846
▁bewaffnet	-11.0846
▁bläulich	-11.0846
▁corporation	-11.0846
▁football	-11.0846
▁genehmigt	-11.0846
▁kandidierte	-11.0846
▁melbourne	-11.0846
▁okinawa	-11.0846
▁qualifizieren	-11.0846
▁tschechien	-11.0846
▁umgewandelt	-11.0846
▁ungewöhnlich	-11.0846
▁uruguay	-11.0846
▁zwanzig	-11.0846
gürtel	-11.0846
spezifische	-11.0846
▁aufsichtsrat	-11.0846
▁erdbeben	-11.0846
▁senioren	-11.0846
▁wiederaufbau	-11.0846
▁schallplatte	-11.0846
erstausstrahlung	-11.0846
verbleib	-11.0846
▁atelier	-11.0846
▁zweitligist	-11.0846
▁franziska	-11.0846
▁ratsherr	-11.0846
▁comedy	-11.0846
▁sekunden	-11.0846
▁fokus	-11.0846
inszenierung	-11.0846
▁chefredakteur	-11.0846
▁massenstart	-11.0846
▁bewaldet	-11.0846
▁depot	-11.0847
▁gebunden	-11.0847
▁verdient	-11.0847
vizia	-11.0847
▁nonnen	-11.0847
▁erlebte	-11.0847
▁bedeckt	-11.0848
▁glatt	-11.0848
▁episoden	-11.0848
▁tommy	-11.0848
▁miami	-11.085
▁zwing	-11.0852
▁nikolaus	-11.0853
▁zoll	-11.0855
▁verabschiedet	-11.0855
▁lahn	-11.0855
▁1832	-11.0855
lá	-11.0855
▁spuren	-11.0856
▁hitler	-11.0856
▁venezianische	-11.0857
▁1841	-11.0857
▁schach	-11.0858
▁hartmann	-11.0858
▁1861	-11.0858
▁betreiber	-11.086
zarma	-11.0861
kraut	-11.0861
▁5000	-11.0863
geht	-11.0866
▁geografie	-11.0867
spezia	-11.0871
historische	-11.0871
▁pflanzenart	-11.0873
▁dokumentiert	-11.0874
wuchs	-11.0876
orientierung	-11.0881
▁sitzung	-11.0896
▁europameister	-11.0897
▁bundestages	-11.0899
▁uci	-11.0906
pierre	-11.0907
debüt	-11.0907
lässt	-11.0908
vertreter	-11.0908
jugend	-11.0908
league	-11.0908
prinz	-11.0909
general	-11.0909
express	-11.0911
▁sgg	-11.0917
gelenk	-11.0922
▁bassist	-11.0929
europacup	-11.0941
wid	-11.0948
standard	-11.0953
ergebnisse	-11.0954
▁lamb	-11.096
▁sommerspiele	-11.0972
truppe	-11.0974
forst	-11.0976
bru	-11.0976
regional	-11.0978
▁lehnte	-11.0983
etwa	-11.0993
otti	-11.1015
bauweise	-11.1018
▁betont	-11.102
route	-11.1032
haube	-11.1044
böden	-11.1051
unterseite	-11.1066
lack	-11.1085
▁probe	-11.1091
weihe	-11.1098
▁sonst	-11.1101
▁schreibt	-11.1107
flüge	-11.111
▁horizontal	-11.1112
▁erwies	-11.1131
▁ausgehend	-11.1133
▁nikola	-11.1133
▁aufmerksam	-11.1138
▁zugehörig	-11.1138
bezüglich	-11.114
dynamik	-11.114
▁achtelfinale	-11.114
▁bekleidete	-11.114
▁gezwungen	-11.114
▁járás	-11.114
▁uraufführung	-11.114
▁verlängerung	-11.114
▁florenz	-11.114
▁fundament	-11.114
▁minderheit	-11.114
▁stellvertreter	-11.114
▁einwanderer	-11.114
▁neapel	-11.114
▁immobilien	-11.114
▁bestattet	-11.114
▁ohio	-11.114
▁entdeckung	-11.114
▁kupfer	-11.114
▁grundlegend	-11.1141
sonnendachs	-11.1141
▁kamerun	-11.1141
▁willi	-11.1141
▁amtsgericht	-11.1141
▁studioalbum	-11.1142
▁börse	-11.1142
▁tennis	-11.1142
▁bewohnt	-11.1142
verzicht	-11.1143
▁unternahm	-11.1143
▁realisiert	-11.1144
▁scharf	-11.1144
▁wanderweg	-11.1144
▁risik	-11.1144
▁verwaltungsamt	-11.1145
▁erzählungen	-11.1146
▁fachbereich	-11.1148
quercus	-11.1149
▁siedelte	-11.1149
▁zirk	-11.115
▁muttersprache	-11.115
debatte	-11.1151
▁orgelbau	-11.1153
▁1813	-11.1157
▁java	-11.1159
▁areal	-11.1161
▁hathor	-11.1161
▁absolute	-11.1162
kilometer	-11.1169
▁weiss	-11.1174
▁morris	-11.1176
▁marx	-11.1183
weisung	-11.1185
▁landstraße	-11.1195
ów	-11.1198
▁nenn	-11.1202
▁audi	-11.1204
spiegel	-11.1208
östlich	-11.1209
angebot	-11.1209
qualifikation	-11.121
verlust	-11.121
güter	-11.121
fernseh	-11.1211
▁timo	-11.1211
[	-11.1212
oberliga	-11.1216
feind	-11.1216
▁with	-11.1217
kamera	-11.1219
logik	-11.1222
rivale	-11.1227
▁ortsname	-11.1231
▁reformierte	-11.1247
birke	-11.1248
strömung	-11.1255
stimmte	-11.1259
▁niederdeutsche	-11.1262
▁lokomotiv	-11.1265
feldzug	-11.1286
unser	-11.1289
▁mächtige	-11.1292
▁sonne	-11.1297
glas	-11.1363
▁kata	-11.1365
▁140	-11.1367
▁silberne	-11.1389
ragt	-11.141
holen	-11.141
▁goldmedaille	-11.143
raufhin	-11.1436
_5	-11.1439
regime	-11.1441
▁getreide	-11.1443
ergänzung	-11.1443
▁bulgarien	-11.1443
▁chūzan	-11.1443
▁grundsätzlich	-11.1443
▁hieronymus	-11.1443
▁horror	-11.1443
▁rodrigo	-11.1443
flottille	-11.1443
▁reduziert	-11.1443
gängig	-11.1443
▁kündigte	-11.1443
▁website	-11.1443
▁dubois	-11.1443
▁gannon	-11.1443
▁verdienstorden	-11.1443
▁1852	-11.1443
▁gießen	-11.1443
▁dreißig	-11.1443
entwickler	-11.1443
verdienstkreuz	-11.1443
▁guinea	-11.1443
▁porsche	-11.1443
migration	-11.1443
▁erfuhr	-11.1443
▁collins	-11.1443
▁jurastudium	-11.1443
▁stettin	-11.1444
dümmer	-11.1444
▁dominiert	-11.1444
▁tirol	-11.1444
gibt	-11.1444
▁gruppenphase	-11.1445
▁ultra	-11.1445
▁kredit	-11.1445
▁bamberg	-11.1445
ralph	-11.1445
▁letztlich	-11.1446
▁nachbargemeinde	-11.1446
säure	-11.1446
▁estland	-11.1446
▁peking	-11.1447
▁datenschutz	-11.1447
▁andererseits	-11.1447
▁zeile	-11.1448
▁buchstabe	-11.1448
radikal	-11.1449
▁arosa	-11.145
▁1831	-11.1451
▁flugplatz	-11.1451
sockel	-11.1451
bestattung	-11.1452
▁down	-11.1453
▁kraus	-11.1453
tschechoslowakei	-11.1454
▁anderson	-11.1458
▁1879	-11.1459
▁kurzfilm	-11.1461
▁anime	-11.1461
▁bäume	-11.1462
▁heart	-11.1462
▁bewegen	-11.1464
▁3000	-11.1466
▁ehrenmitglied	-11.147
▁nagel	-11.147
▁kent	-11.1471
▁verlaufenden	-11.1471
bett	-11.1478
ggi	-11.1478
▁lehen	-11.148
töne	-11.148
eisenhüttenstadt	-11.1481
profi	-11.1484
▁medica	-11.1488
▁schwesterschiff	-11.1488
▁melodie	-11.1493
▁iron	-11.1502
▁gelblich	-11.1502
aufzeichnung	-11.1508
ça	-11.151
▁porto	-11.1511
lach	-11.1515
▁passagierschiff	-11.1519
objekt	-11.1521
offiziell	-11.1522
hälfte	-11.1523
schüler	-11.1524
ähnliche	-11.1529
gefunden	-11.1529
schnell	-11.1546
schweiz	-11.1548
hove	-11.1551
300	-11.1556
zzo	-11.156
silber	-11.1565
▁älter	-11.1578
▁wunder	-11.1583
▁stunde	-11.1584
▁feli	-11.1598
zeitschrift	-11.1611
meile	-11.1633
▁konservative	-11.1643
gewinnung	-11.1657
schwelle	-11.167
▁3,5	-11.1687
▁suchte	-11.1692
▁ruta	-11.17
della	-11.1706
wiese	-11.1711
montag	-11.1713
▁entscheiden	-11.1733
▁israelische	-11.175
denkmäler	-11.1751
glauben	-11.1751
olympi	-11.1753
▁volleyball	-11.1756
▁wöchentlich	-11.1756
katastrophe	-11.1756
korrespondent	-11.1756
▁abgelehnt	-11.1756
▁arizona	-11.1756
▁geöffnet	-11.1756
▁initiierte	-11.1756
▁kolumbianische	-11.1756
▁ländliche	-11.1756
▁memorial	-11.1756
▁rodlern	-11.1756
▁umbenennung	-11.1756
▁vergangenheit	-11.1756
▁wächst	-11.1756
▁zukünftig	-11.1756
▁algerien	-11.1756
▁bologna	-11.1756
▁künstlich	-11.1756
▁magdeburg	-11.1756
▁milliarde	-11.1756
▁unterbrochen	-11.1756
▁übersetzer	-11.1756
▁harvard	-11.1756
▁beinhaltet	-11.1756
▁vielmehr	-11.1756
stärkste	-11.1756
▁bulgarische	-11.1756
▁theoretische	-11.1756
▁magister	-11.1756
▁café	-11.1756
▁navy	-11.1756
schmiede	-11.1756
▁konkrete	-11.1756
▁priesterseminar	-11.1756
▁rajon	-11.1756
▁sofia	-11.1756
entwürfe	-11.1756
märkte	-11.1756
▁rabbi	-11.1756
schnabel	-11.1757
▁blanc	-11.1757
▁kelch	-11.1757
▁austragung	-11.1757
▁erwartet	-11.1757
▁gewertet	-11.1757
▁dauerhaft	-11.1757
▁herrscht	-11.1757
betreuung	-11.1757
▁reims	-11.1758
▁gesandte	-11.1758
▁tänzer	-11.1759
zauber	-11.1759
▁champions	-11.1759
▁kanzel	-11.1759
▁nachkommen	-11.1759
▁ambros	-11.1759
▁honor	-11.176
casting	-11.176
▁serge	-11.1761
▁nienburg	-11.1761
▁treppen	-11.1762
▁integration	-11.1762
▁unterhalt	-11.1763
▁arbor	-11.1764
▁methodist	-11.1764
tzing	-11.1764
▁erlangen	-11.1767
▁entschloss	-11.1768
first	-11.177
▁kameramann	-11.1771
▁extra	-11.1772
▁agnes	-11.1773
▁abermals	-11.1774
▁abgebrochen	-11.1775
▁aero	-11.1778
▁kirchenschiff	-11.1779
▁lille	-11.1781
▁nadel	-11.1781
▁challenger	-11.1782
▁halden	-11.1784
▁emeritier	-11.1788
▁vergleichbar	-11.1792
▁ehemann	-11.1796
schwankungen	-11.1803
▁women	-11.1805
interne	-11.1805
▁linz	-11.1812
▁appel	-11.1815
▁water	-11.1822
▁natürlich	-11.1831
bah	-11.1838
salon	-11.1842
technologie	-11.1844
treffen	-11.1844
600	-11.1857
house	-11.1864
einkommen	-11.1869
▁kuba	-11.1881
mächtig	-11.1914
ovic	-11.1916
brachte	-11.1954
▁geräte	-11.1968
tempo	-11.1983
▁norddeutsche	-11.1992
▁beweis	-11.2004
villa	-11.201
▁südkorea	-11.2031
hebung	-11.2037
▁evangeli	-11.2039
▁stabil	-11.2059
geschichtliche	-11.2059
pferd	-11.2072
▁troph	-11.2072
▁metropol	-11.2078
▁unregelmäßig	-11.2078
bemühungen	-11.2078
thüringen	-11.2078
westfälische	-11.2078
▁auffällig	-11.2078
▁bemerkenswert	-11.2078
▁benjamin	-11.2078
▁besonderheit	-11.2078
▁entworfen	-11.2078
▁foundation	-11.2078
▁hartenkeil	-11.2078
▁koblenz	-11.2078
▁liptitz	-11.2078
▁octavian	-11.2078
▁organisatorisch	-11.2078
▁pittsburgh	-11.2078
▁verbessern	-11.2078
▁verhindert	-11.2078
▁wintersemester	-11.2078
▁2012/13	-11.2078
▁erkennbar	-11.2078
▁möchte	-11.2078
▁nötig	-11.2078
compagni	-11.2078
steiermark	-11.2078
▁charlotte	-11.2078
▁abstammung	-11.2078
▁papacha	-11.2078
anthony	-11.2078
▁münz	-11.2078
▁rafael	-11.2078
▁hoffnung	-11.2078
aggregat	-11.2078
sponsor	-11.2078
verträge	-11.2078
▁angewandte	-11.2078
rookie	-11.2078
▁senators	-11.2078
▁ochsen	-11.2079
▁bräu	-11.2079
▁apsis	-11.2079
▁rettung	-11.2079
▁wahlperiode	-11.2079
▁staatsexamen	-11.2079
▁kommandogerät	-11.2079
▁zugelassen	-11.208
ündig	-11.208
▁bekommen	-11.208
jenigen	-11.208
▁erarbeitet	-11.2081
▁felix	-11.2081
▁wittenberg	-11.2081
▁correr	-11.2081
▁türken	-11.2083
▁kinofilm	-11.2083
▁schwefel	-11.2085
▁materialien	-11.2085
▁austria	-11.2086
▁landesmeister	-11.2086
▁wilson	-11.2087
▁maschinenbau	-11.2088
▁landesliste	-11.2088
▁1856	-11.2092
▁1835	-11.2093
▁beförderung	-11.2095
▁prize	-11.2096
▁1872	-11.2096
▁landgemeinde	-11.2098
▁pfälzerwaldes	-11.21
▁kabel	-11.2101
▁rub	-11.2101
▁entscheidend	-11.2102
filter	-11.2102
▁ostsee	-11.2104
▁netzwerk	-11.2106
relation	-11.2106
▁kostenlos	-11.2109
▁davis	-11.2116
stige	-11.2119
▁fame	-11.2126
eingang	-11.2135
▁briten	-11.2137
nathan	-11.2146
kalender	-11.2154
▁lateinamerika	-11.2154
sohn	-11.2168
ful	-11.2168
baltic	-11.2175
▁heimatland	-11.2177
beziehung	-11.2183
breitungsgebiet	-11.2186
sandstein	-11.2187
oberfläche	-11.2191
▁fair	-11.2212
▁wirkt	-11.2215
▁frisch	-11.2219
▁romanische	-11.2221
▁verstorben	-11.2233
verwandt	-11.2235
▁verlieh	-11.2235
_4	-11.2241
▁beschrieb	-11.2242
röder	-11.2256
print	-11.2264
▁befasst	-11.2266
rippe	-11.2269
▁schieß	-11.2295
▁freiberg	-11.2304
ewitsch	-11.2329
▁optim	-11.2345
▁verschieden	-11.2376
ärzte	-11.2387
▁durchgehend	-11.2391
▁gesteins	-11.2398
treiben	-11.2398
kirch	-11.2399
dynastie	-11.2411
pseudo	-11.2411
zuflüsse	-11.2411
▁beheimatet	-11.2411
▁colorado	-11.2411
▁ghetto	-11.2411
▁habilitation	-11.2411
▁hokuzan	-11.2411
▁hollywood	-11.2411
▁isomorph	-11.2411
▁mécanique	-11.2411
alphabet	-11.2411
propaganda	-11.2411
▁2008/09	-11.2411
▁beherbergt	-11.2411
▁kopenhagen	-11.2411
▁kürzer	-11.2411
▁prädikat	-11.2411
▁versteckt	-11.2411
▁africa	-11.2412
▁saarbrücken	-11.2412
▁schräg	-11.2412
▁prominente	-11.2412
▁transdev	-11.2412
▁jersey	-11.2412
früchte	-11.2412
▁vorlesungen	-11.2412
▁inszenierte	-11.2412
▁vermutet	-11.2412
▁impuls	-11.2412
▁stadium	-11.2412
▁berief	-11.2412
▁courthouse	-11.2412
▁assistenz	-11.2412
fizierung	-11.2412
röhre	-11.2412
chronik	-11.2412
▁kompakt	-11.2412
▁[]	-11.2412
▁externe	-11.2412
▁stillgelegt	-11.2413
▁donald	-11.2413
▁generell	-11.2413
▁atlanta	-11.2413
▁songhai	-11.2413
▁gedruckt	-11.2413
brigade	-11.2413
▁geteilt	-11.2414
▁errera	-11.2414
▁haushalts	-11.2414
niveau	-11.2414
▁genug	-11.2415
▁siemens	-11.2415
▁chief	-11.2415
▁erstligist	-11.2416
▁grundriss	-11.2417
▁grabstätte	-11.2417
gesteuert	-11.2418
▁strahlen	-11.2418
▁schienen	-11.2419
▁innenstadt	-11.242
orientierte	-11.242
▁landgericht	-11.242
▁chamber	-11.242
▁tourismus	-11.2421
rpk	-11.2422
_14	-11.2426
▁fachschule	-11.2426
▁volksschule	-11.2431
expert	-11.2431
▁elite	-11.2437
▁grat	-11.2441
schlaf	-11.2442
▁vfl	-11.2443
▁sprachgebiet	-11.2445
▁basierend	-11.2446
▁erzielt	-11.2451
▁flut	-11.2454
för	-11.2454
▁geschütze	-11.246
gegenstand	-11.2467
ergebnis	-11.2469
▁josi	-11.2472
▁landete	-11.2481
▁wachsende	-11.2489
▁jura	-11.2505
2000	-11.2514
fällt	-11.2522
gladbach	-11.2522
praxis	-11.2523
dialekt	-11.2523
aufenthalt	-11.2523
mündung	-11.2523
manager	-11.2523
kategorie	-11.2523
chemie	-11.2524
frankreich	-11.2524
berater	-11.2525
flotte	-11.2526
▁schulzeit	-11.2527
statue	-11.2527
status	-11.2531
motiv	-11.2539
▁nordwest	-11.2548
quote	-11.2555
rhythmus	-11.2556
störung	-11.2573
rangliste	-11.2573
▁million	-11.2584
▁fing	-11.2589
gerundet	-11.2591
türkisch	-11.2601
dekor	-11.2612
schleife	-11.2645
▁grünlich	-11.2645
▁jahrzehnt	-11.2649
▁maximilian	-11.2669
kritische	-11.2674
helm	-11.2683
begriff	-11.2701
▁schwank	-11.2713
norm	-11.2753
▁löwen	-11.2754
▁pharma	-11.2756
▁seybold	-11.2756
assessor	-11.2756
darkehmen	-11.2756
explosion	-11.2756
network	-11.2756
quarterback	-11.2756
stadtbefestigung	-11.2756
touchdown	-11.2756
▁ausführlich	-11.2756
▁continental	-11.2756
▁erfüllen	-11.2756
▁filmeditor	-11.2756
▁großereignis	-11.2756
▁ibrahim	-11.2756
▁künftig	-11.2756
▁oranienburg	-11.2756
▁schicksal	-11.2756
▁scientology	-11.2756
▁wurzeln	-11.2756
flächig	-11.2756
▁nacional	-11.2756
▁nanzan	-11.2756
▁wirksam	-11.2756
▁dürfen	-11.2756
▁gezählt	-11.2756
▁konservatorium	-11.2756
gebrannt	-11.2756
▁bakteri	-11.2756
▁slowenisch	-11.2756
▁umstritten	-11.2756
▁samuel	-11.2756
▁1834	-11.2756
▁marketing	-11.2756
▁marshall	-11.2756
▁gemarkung	-11.2756
▁knochen	-11.2756
strelitz	-11.2756
▁betätigte	-11.2756
▁interpretation	-11.2756
provence	-11.2757
rekrut	-11.2757
croix	-11.2757
▁kriminal	-11.2757
▁terror	-11.2757
▁schirm	-11.2757
▁spitznamen	-11.2757
▁antholz	-11.2758
▁gefeiert	-11.2758
▁otho	-11.2758
▁vereinbart	-11.2758
▁anregung	-11.2758
▁claus	-11.2758
▁raupen	-11.2758
asiatische	-11.2759
▁offensiv	-11.2759
bewusstsein	-11.2759
▁vermittelt	-11.276
▁großmutter	-11.276
▁experten	-11.2761
▁eiförmig	-11.2761
▁earl	-11.2761
▁retten	-11.2761
▁patron	-11.2762
▁fähigkeiten	-11.2763
▁philologie	-11.2763
▁trainings	-11.2763
▁iwanow	-11.2764
zerstör	-11.2765
▁verlangt	-11.2765
▁bewegt	-11.2765
▁irak	-11.2766
▁patent	-11.2766
▁faust	-11.2766
▁marmor	-11.2768
▁weiterbildung	-11.2771
▁roche	-11.2771
▁spielbetrieb	-11.2772
▁oriental	-11.2772
▁chemische	-11.2774
▁jahrtausend	-11.2775
▁1821	-11.2775
▁yacht	-11.2778
▁100.000	-11.2779
▁holland	-11.2779
▁marval	-11.278
▁harry	-11.278
▁vorherige	-11.2784
metall	-11.2787
▁lyon	-11.2789
▁willem	-11.2794
gneis	-11.2806
pathologi	-11.2811
▁haushalte	-11.2814
kaserne	-11.2817
präsentation	-11.2839
parteitag	-11.2855
ordnete	-11.2869
bühl	-11.2872
bedarf	-11.2879
personal	-11.288
verantwortlich	-11.2881
johann	-11.2882
brief	-11.2887
pumpe	-11.2892
suche	-11.2911
▁bewerb	-11.2925
▁notar	-11.2936
▁übrig	-11.2936
losigkeit	-11.2982
pyr	-11.3019
fluggesellschaft	-11.3049
▁reno	-11.305
blend	-11.3064
▁integr	-11.3068
italien	-11.3073
▁zwangs	-11.3086
gemäß	-11.3108
▁kennt	-11.311
▁teilnahm	-11.311
▁göttin	-11.311
nepomuk	-11.3113
▁archäologie	-11.3113
▁ariès	-11.3113
▁bötzlöh	-11.3113
▁diskutiert	-11.3113
▁gibraltar	-11.3113
▁giuseppe	-11.3113
▁luxemburg	-11.3113
▁medicine	-11.3113
▁navigation	-11.3113
▁ontario	-11.3113
▁penguins	-11.3113
▁philadelphia	-11.3113
▁verschwunden	-11.3113
▁vertrauen	-11.3113
▁verwundet	-11.3113
effizient	-11.3113
▁ermordung	-11.3113
▁publizist	-11.3113
▁vegetation	-11.3113
▁adelsgeschlecht	-11.3113
▁ausgerüstet	-11.3113
▁fliehen	-11.3113
▁renommierte	-11.3113
▁senegal	-11.3113
▁neuseeland	-11.3113
▁puazo	-11.3113
▁campbell	-11.3113
▁deuschl	-11.3113
▁michail	-11.3114
▁dobbin	-11.3114
▁eingewechselt	-11.3114
▁innsbruck	-11.3114
▁blank	-11.3114
▁bochum	-11.3114
▁versorgt	-11.3114
▁kosaken	-11.3114
▁angepasst	-11.3114
▁emotion	-11.3114
▁psychologie	-11.3114
▁übte	-11.3114
flüssig	-11.3114
▁gehirn	-11.3114
▁pietro	-11.3114
▁esterwege	-11.3114
▁gestrichen	-11.3114
▁deutet	-11.3114
▁lewis	-11.3114
▁geehrt	-11.3114
▁montreal	-11.3114
▁claude	-11.3114
▁holländische	-11.3115
▁gastprofessor	-11.3115
▁thorax	-11.3115
▁zugehörigkeit	-11.3115
▁niederlassung	-11.3116
blöcke	-11.3116
trophäe	-11.3116
▁aufsteiger	-11.3116
quadrat	-11.3117
▁balkan	-11.3117
▁flagge	-11.3118
▁knight	-11.3118
▁streb	-11.3119
▁herzogtum	-11.3119
▁quadratische	-11.3119
▁theaterstück	-11.312
▁helfen	-11.312
▁1:0	-11.3121
▁falsch	-11.3121
▁bowl	-11.3121
▁aktien	-11.3123
geometr	-11.3123
▁taucht	-11.3123
▁selber	-11.3124
▁geschickt	-11.3125
▁grundwasser	-11.3125
▁schatz	-11.3127
väg	-11.3127
▁marcel	-11.3127
▁falter	-11.3129
▁1857	-11.3129
▁trophy	-11.313
▁verfasst	-11.3131
verfilmung	-11.3133
speed	-11.3134
▁landesliga	-11.3136
▁moment	-11.3139
▁piper	-11.3139
craft	-11.3141
hydro	-11.3145
▁weiden	-11.3151
erzöge	-11.3156
ränk	-11.3159
▁niki	-11.3162
▁sublim	-11.3165
western	-11.3232
▁gespräch	-11.324
preußen	-11.3248
sperre	-11.325
gattung	-11.3251
personen	-11.3253
treffer	-11.3253
▁tabelle	-11.3259
schwedisch	-11.3261
klima	-11.3265
▁komitat	-11.3277
▁gesteine	-11.3283
verordnung	-11.3284
kranz	-11.3291
nationalpark	-11.3304
ründungsmitglied	-11.3305
bruck	-11.3307
▁einheitliche	-11.3314
▁nationalsprache	-11.3328
generation	-11.333
▁gemein	-11.3342
▁merse	-11.3344
wappen	-11.3347
▁leitende	-11.3351
polnische	-11.3356
balken	-11.3397
model	-11.3413
uigi	-11.3414
reichste	-11.3439
fotografie	-11.3453
▁jordan	-11.347
verwalter	-11.3473
irisch	-11.3475
empfehlung	-11.3484
tuberkulose	-11.3484
▁einweihung	-11.3484
▁emigrierte	-11.3484
▁erbstollen	-11.3484
▁färbung	-11.3484
▁innehatte	-11.3484
▁jugoslawien	-11.3484
▁mazedonische	-11.3484
▁naturräumlich	-11.3484
▁pennsylvania	-11.3484
▁plötzlich	-11.3484
▁reparatur	-11.3484
▁residenz	-11.3484
▁roessler	-11.3484
▁unbefestigte	-11.3484
▁varietät	-11.3484
▁vatikan	-11.3484
▁vilnius	-11.3484
▁winnipeg	-11.3484
▁zürcher	-11.3484
▁alkohol	-11.3484
▁argument	-11.3484
▁aufgehoben	-11.3484
▁baptist	-11.3484
▁torfabbau	-11.3484
▁vergrößert	-11.3484
arrangeur	-11.3484
satzteillogistik	-11.3484
▁eberhard	-11.3484
▁kroatisch	-11.3484
▁wiesbaden	-11.3484
▁winterthur	-11.3484
quartett	-11.3484
▁korrekt	-11.3484
hopkins	-11.3484
▁ökologische	-11.3484
köpfige	-11.3484
▁parlamentswahl	-11.3484
künfte	-11.3484
relevant	-11.3484
▁körner	-11.3484
▁ausschied	-11.3484
stürzt	-11.3484
▁xaver	-11.3484
▁überlebenden	-11.3484
▁zurückkehrte	-11.3484
▁vereinzelt	-11.3484
▁delegiert	-11.3484
kuppel	-11.3484
▁linguist	-11.3484
▁corneli	-11.3485
kündigung	-11.3485
wettkämpfe	-11.3485
▁jetzige	-11.3485
▁wärme	-11.3485
▁animation	-11.3485
▁bismarckturm	-11.3486
▁canadi	-11.3486
▁krater	-11.3486
▁moderiert	-11.3486
▁sergi	-11.3486
▁bären	-11.3487
▁regensburg	-11.3487
volumen	-11.3487
▁stanley	-11.3487
erlebnis	-11.3487
▁wahrheit	-11.3488
▁kontext	-11.3488
▁renzel	-11.3488
▁holznot	-11.3488
▁gefährdet	-11.3488
▁abgesehen	-11.3488
▁sierra	-11.3489
▁wähler	-11.349
▁lebensmittel	-11.3491
▁geschätzt	-11.3491
klappen	-11.3492
▁änderungen	-11.3493
taunus	-11.3494
religi	-11.3494
▁mittelpunkt	-11.3495
informatik	-11.3496
▁angesicht	-11.3496
▁schottland	-11.3497
▁distal	-11.3498
▁léo	-11.35
▁ostseite	-11.3504
▁zpu	-11.3504
▁pfund	-11.3506
▁montero	-11.3506
▁hexe	-11.3507
▁fyn	-11.3509
mächte	-11.3509
▁auftrat	-11.3511
piano	-11.3512
zeugnis	-11.3517
▁fasst	-11.3521
▁1800	-11.3523
▁1200	-11.3523
▁zeugen	-11.3523
▁hände	-11.3527
konvent	-11.3528
binding	-11.3541
▁senke	-11.3546
parameter	-11.3564
datei	-11.3572
▁preuß	-11.3572
east	-11.3575
▁puppe	-11.3579
▁gebet	-11.3595
▁humanist	-11.361
student	-11.3634
philosoph	-11.3635
symbol	-11.3636
literatur	-11.3636
patro	-11.3636
verkauft	-11.3637
▁entsprach	-11.364
aufgaben	-11.3646
▁america	-11.3663
konsul	-11.3669
kmalgeschützte	-11.3698
tiefe	-11.3716
alltag	-11.3717
▁sperr	-11.3743
römisch	-11.3757
▁logis	-11.376
samsun	-11.3764
▁transportiert	-11.3766
premiere	-11.378
onale	-11.3796
württembergische	-11.3814
▁iranische	-11.3823
▁ramse	-11.3823
deutung	-11.3864
gedächtnis	-11.3868
gläubige	-11.3868
lexikon	-11.3868
symmetrisch	-11.3868
täubling	-11.3868
▁bolivien	-11.3868
▁constantin	-11.3868
▁großherzog	-11.3868
▁humboldt	-11.3868
▁illinois	-11.3868
▁kasachstan	-11.3868
▁keramik	-11.3868
▁konstruiert	-11.3868
▁kurhessische	-11.3868
▁malcolm	-11.3868
▁moorniederung	-11.3868
▁nachkriegszeit	-11.3868
▁performance	-11.3868
▁resolution	-11.3868
▁salvador	-11.3868
▁verweigert	-11.3868
▁verzeichnet	-11.3868
▁virginia	-11.3868
fälschung	-11.3868
protokoll	-11.3868
▁taiwan	-11.3868
▁vorübergehend	-11.3868
▁kosovo	-11.3868
▁matthew	-11.3868
▁pinneberg	-11.3868
▁hocké	-11.3868
▁sklaven	-11.3868
▁toronto	-11.3868
polizisten	-11.3868
▁deportation	-11.3868
▁health	-11.3868
▁vergangenen	-11.3868
▁abraham	-11.3869
▁telefon	-11.3869
▁verantwortung	-11.3869
▁vertraut	-11.3869
▁verbinden	-11.3869
▁räumliche	-11.3869
strangers	-11.3869
▁gereint	-11.3869
häftling	-11.3869
▁lohß	-11.3869
▁predigt	-11.3869
schaftswahl	-11.3869
▁stephen	-11.3869
▁accra	-11.3869
▁erfasst	-11.3869
▁ethnie	-11.3869
fjord	-11.3869
▁physikalische	-11.3869
posaune	-11.3869
▁kenntnisse	-11.3869
angerapp	-11.3869
script	-11.3869
▁husik	-11.3869
▁emsland	-11.3869
▁demonstration	-11.387
▁direktmandat	-11.387
▁vollendet	-11.387
▁eroberung	-11.387
▁interpretiert	-11.387
▁schoeller	-11.387
▁belgrad	-11.3871
▁verona	-11.3871
erhöhung	-11.3871
▁verwenden	-11.3871
▁reinhard	-11.3871
▁generaldiözese	-11.3871
▁ehepaar	-11.3871
sektor	-11.3871
▁großvater	-11.3873
▁überzeugt	-11.3874
▁1806	-11.3875
▁jorge	-11.3875
▁stammplatz	-11.3876
▁primer	-11.3877
▁kirchengebäude	-11.3878
▁schönheit	-11.3878
▁heads	-11.3878
▁athletic	-11.3881
▁hochwasser	-11.3882
▁moritz	-11.3882
jahresvertrag	-11.3882
leader	-11.3884
▁hubert	-11.3885
▁silva	-11.3886
sensor	-11.3886
ethik	-11.3886
schiller	-11.3899
flosse	-11.39
▁etliche	-11.3902
flöte	-11.392
studierenden	-11.392
bäche	-11.3924
▁tang	-11.3955
basierte	-11.398
bereitschaft	-11.3991
siedeln	-11.4027
papier	-11.4035
pfarrer	-11.4036
distanz	-11.4036
größte	-11.4036
bundesstaat	-11.4037
▁studiert	-11.4038
palast	-11.4048
partnerschaft	-11.4048
direktion	-11.4049
erwaltungsreform	-11.4053
▁lenk	-11.4089
charakteristisch	-11.411
▁gleise	-11.4123
▁halbfinal	-11.4125
kranke	-11.4139
ziehung	-11.417
music	-11.4177
▁erwachsene	-11.4207
▁pfälzerwald	-11.4241
▁profess	-11.4258
fulfulde	-11.4268
pfälzische	-11.4268
reflektor	-11.4268
▁2007/08	-11.4268
▁artefakte	-11.4268
▁baltazzi	-11.4268
▁beschäftigung	-11.4268
▁cincinnati	-11.4268
▁conference	-11.4268
▁dangeard	-11.4268
▁diomante	-11.4268
▁división	-11.4268
▁donnelly	-11.4268
▁electric	-11.4268
▁erschossen	-11.4268
▁gwydir	-11.4268
▁hervorragende	-11.4268
▁individuelle	-11.4268
▁kreuztabelle	-11.4268
▁pharmazeutische	-11.4268
▁ressourcen	-11.4268
▁schlagzeuger	-11.4268
▁synonym	-11.4268
athanasi	-11.4268
gewächse	-11.4268
sprockhoff	-11.4268
swetlana	-11.4268
▁angekündigt	-11.4268
▁aufsätze	-11.4268
▁begeistert	-11.4268
▁erforscht	-11.4268
▁florian	-11.4268
▁gespeist	-11.4268
▁greifswald	-11.4268
▁illegale	-11.4268
▁library	-11.4268
▁meßkirch	-11.4268
▁produzieren	-11.4268
▁rihanna	-11.4268
▁sechzehn	-11.4268
▁verbündete	-11.4268
luftstreitkräfte	-11.4268
▁gestartet	-11.4268
▁murray	-11.4268
▁schwäbisch	-11.4268
▁stängel	-11.4268
▁palermo	-11.4268
überwachung	-11.4268
▁grbac	-11.4268
▁mönch	-11.4268
▁senkrecht	-11.4268
▁dublin	-11.4268
▁leonhard	-11.4268
▁zweitgrößte	-11.4269
▁kreuzfahrer	-11.4269
▁permanent	-11.4269
▁befreundet	-11.4269
▁codice	-11.4269
▁märchen	-11.4269
▁veröffentlichen	-11.4269
▁heinkel	-11.4269
seltzbach	-11.4269
füllung	-11.4269
gefühl	-11.4269
▁forschte	-11.4269
▁unterscheidet	-11.4269
▁spears	-11.4269
▁lansing	-11.4269
▁anzutreffen	-11.4269
▁webserver	-11.4269
fiction	-11.4269
venture	-11.427
▁geliebte	-11.427
▁komponenten	-11.427
▁walisische	-11.427
▁commission	-11.4271
intendant	-11.4271
▁schreibweise	-11.4271
▁erdgeschoss	-11.4271
leidenschaft	-11.4271
▁bbc	-11.4271
▁löwenstein	-11.4272
▁entlassung	-11.4272
▁landwirt	-11.4272
▁bulva	-11.4273
▁operative	-11.4273
▁fertigstellung	-11.4273
▁exakt	-11.4273
▁volkswagen	-11.4273
dieselmotor	-11.4274
▁geschah	-11.4274
▁northern	-11.4275
▁bekanntgegeben	-11.4275
▁petersburg	-11.4275
▁zurückzuführen	-11.4276
▁hirsch	-11.4276
▁filiale	-11.4277
▁vermittlung	-11.4277
▁astronomen	-11.4278
▁anwesend	-11.4278
▁fortgesetzt	-11.4279
▁1822	-11.4285
▁makro	-11.4288
▁späteste	-11.4288
▁bensberg	-11.4289
▁erreichbar	-11.4291
wahlrecht	-11.4292
▁axel	-11.4296
▁scheid	-11.4298
▁legende	-11.4311
▁lösen	-11.4311
_6	-11.4315
▁social	-11.4327
konsum	-11.4335
▁stilistisch	-11.4351
spital	-11.4367
▁elektr	-11.4402
apfel	-11.4402
mandat	-11.4436
▁sinfonie	-11.4439
regisseur	-11.4448
beteiligung	-11.4451
revolution	-11.4452
argent	-11.4455
río	-11.4456
▁qualifiziert	-11.4461
▁facto	-11.4463
▁alternativ	-11.4465
krankenhaus	-11.4471
neutral	-11.4482
hieb	-11.4571
funktionär	-11.4583
skoje	-11.4593
wurz	-11.4647
▁geologische	-11.4649
▁athlet	-11.4672
▁benedikt	-11.4685
639-3	-11.4685
symmetrie	-11.4685
▁arsanjani	-11.4685
▁aspekte	-11.4685
▁ausgedehnte	-11.4685
▁blattspreite	-11.4685
▁crooked	-11.4685
▁defensiv	-11.4685
▁engineering	-11.4685
▁goiás	-11.4685
▁guatemala	-11.4685
▁kontrovers	-11.4685
▁molekül	-11.4685
▁mythologie	-11.4685
▁nächstgelegene	-11.4685
▁osmanagi	-11.4685
▁schlippenbach	-11.4685
▁schmetterling	-11.4685
▁universal	-11.4685
▁vancouver	-11.4685
▁özbf	-11.4685
zeremonie	-11.4685
▁1859	-11.4685
▁gelegenheit	-11.4685
▁korvette	-11.4685
▁middle	-11.4685
▁vartanes	-11.4685
▁gräfin	-11.4685
▁pokalsieger	-11.4685
▁zechstein	-11.4685
▁entwarf	-11.4685
▁lösungsbücher	-11.4685
▁tötet	-11.4685
▁lausanne	-11.4685
▁geschehen	-11.4685
▁indonesische	-11.4685
vorarlberg	-11.4685
▁minimal	-11.4685
▁benediktiner	-11.4685
▁hängt	-11.4685
▁russell	-11.4685
▁abgetragen	-11.4685
▁stahel	-11.4685
marathon	-11.4685
▁deportiert	-11.4685
▁watson	-11.4685
▁plaza	-11.4685
▁professional	-11.4685
▁elmina	-11.4686
▁schwalm	-11.4686
▁fliegerhorst	-11.4686
▁verliebt	-11.4686
▁erlernte	-11.4686
vorsteher	-11.4686
▁verliert	-11.4686
▁herrendoppel	-11.4686
haltestelle	-11.4686
▁orquest	-11.4686
▁krankenhäuser	-11.4686
▁borgia	-11.4687
▁gelungen	-11.4687
▁coesfeld	-11.4687
▁trust	-11.4687
▁klinische	-11.4687
▁biographie	-11.4687
▁eingelassen	-11.4687
▁calcio	-11.4688
▁fernsehsender	-11.4688
▁einsitzer	-11.4688
▁seemeile	-11.4688
dienstleistungen	-11.4688
▁harald	-11.4688
▁fricke	-11.4688
▁kirchdorf	-11.4688
▁snow	-11.4689
__	-11.4689
▁generalleutnant	-11.469
▁rtl	-11.469
tänze	-11.4691
schneeschleuder	-11.4691
▁innenraum	-11.4692
▁stief	-11.4692
▁dialog	-11.4693
▁götz	-11.4693
▁urban	-11.4693
aktivisten	-11.4696
second	-11.4699
▁keltisch	-11.4699
drückt	-11.4699
theologische	-11.4699
▁russen	-11.4701
▁verglich	-11.4702
▁hirt	-11.4704
▁eingemeindet	-11.4704
▁philolog	-11.4704
ehir	-11.4706
dampfmaschine	-11.471
▁gesteinsschicht	-11.4716
▁zwangsarbeit	-11.4719
▁feierlich	-11.4751
bände	-11.4753
▁bolivianische	-11.4789
▁elektronische	-11.4795
südamerikanische	-11.4818
dolf	-11.4828
antenne	-11.4846
entsprechend	-11.4886
preußische	-11.4886
vermögen	-11.4886
panzer	-11.4886
fassade	-11.4887
südwest	-11.4888
vollständig	-11.489
1804	-11.4959
bedeutend	-11.4963
bissau	-11.4981
inhalt	-11.499
▁orient	-11.4995
▁küche	-11.502
1824	-11.5023
▁kehrt	-11.5036
▁komponiert	-11.5067
bedürftig	-11.512
bestrebungen	-11.512
commonwealth	-11.512
▁2010/2011	-11.512
▁berkeley	-11.512
▁bombardier	-11.512
▁cargobeamer	-11.512
▁elizabeth	-11.512
▁generalmajor	-11.512
▁gesammelt	-11.512
▁glänzend	-11.512
▁hebräisch	-11.512
▁helsinki	-11.512
▁leningrad	-11.512
▁molekularbiolog	-11.512
▁registriert	-11.512
▁restaurierung	-11.512
▁schulbesuch	-11.512
▁scorerpunkte	-11.512
▁sheldon	-11.512
▁snooker	-11.512
▁sociét	-11.512
▁spelzini	-11.512
▁teilgenommen	-11.512
▁vroniplag	-11.512
▁vännäs	-11.512
▁ähnelt	-11.512
adjutant	-11.512
▁2014/15	-11.512
▁ecuador	-11.512
▁genussrecht	-11.512
▁kaempfert	-11.512
▁kurzfristig	-11.512
▁vietnam	-11.512
▁weihnachts	-11.512
▁zagreb	-11.512
▁semester	-11.512
präsidium	-11.512
synthese	-11.512
▁gedanken	-11.512
▁krakau	-11.512
▁quadratmeter	-11.512
▁renoviert	-11.512
▁gefährlich	-11.512
▁capital	-11.512
▁nölke	-11.512
▁mauersberger	-11.512
karosserie	-11.512
ception	-11.512
▁gefasst	-11.512
▁pagett	-11.512
▁cinema	-11.512
▁raketen	-11.512
▁deckengemälde	-11.512
▁carcass	-11.512
▁kasachische	-11.512
▁history	-11.512
▁töten	-11.512
▁chryso	-11.512
torschützenkönig	-11.512
▁rights	-11.512
▁protestantische	-11.512
▁ornament	-11.512
▁guido	-11.512
▁heftige	-11.512
▁deymann	-11.512
füße	-11.5121
▁belarus	-11.5121
dragoner	-11.5121
madonna	-11.5121
▁gerufen	-11.5121
▁erkenntnisse	-11.5121
▁utrecht	-11.5121
▁epoche	-11.5121
▁cousin	-11.5121
▁wertvolle	-11.5121
▁bestimmen	-11.5121
▁mariengarten	-11.5122
▁synchronisiert	-11.5122
▁eurovision	-11.5123
▁eingingen	-11.5124
▁kragen	-11.5124
streik	-11.5124
▁verdrängt	-11.5124
▁erinnern	-11.5125
▁kirke	-11.5125
▁eingeladen	-11.5125
▁wallfahrt	-11.5125
▁rainer	-11.5129
▁franco	-11.5139
▁absolviert	-11.5145
▁neffe	-11.5147
▁wehrkreis	-11.5156
▁ernest	-11.5175
käfer	-11.5218
„	-11.5237
▁kommunist	-11.5248
▁lenz	-11.5265
_3	-11.5271
sozial	-11.5324
radsport	-11.5336
periode	-11.5339
variante	-11.5341
initiative	-11.5341
liberal	-11.5341
mittler	-11.5342
american	-11.5342
minuten	-11.5343
außenministerium	-11.535
–1945	-11.5514
▁badminton	-11.5517
vorsitzende	-11.5519
▁charakterisier	-11.5552
schätzt	-11.5566
champion	-11.557
episode	-11.5571
▁pfeifen	-11.5574
empfänger	-11.5574
▁abenteuer	-11.5574
inspektor	-11.5574
repertoire	-11.5574
waffenstillstand	-11.5574
▁ausgeliehen	-11.5574
▁broschüre	-11.5574
▁carnegie	-11.5574
▁diözesan	-11.5574
▁gescheitert	-11.5574
▁herausragende	-11.5574
▁heutzutage	-11.5574
▁kaufmännische	-11.5574
▁klassenerhalt	-11.5574
▁machacamarca	-11.5574
▁magdalena	-11.5574
▁osrblie	-11.5574
▁rasmussen	-11.5574
▁ravensburg	-11.5574
▁rodríguez	-11.5574
▁rădescu	-11.5574
▁sizilien	-11.5574
▁sklerotisiert	-11.5574
▁transluzent	-11.5574
▁unruhen	-11.5574
▁venezuela	-11.5574
▁verstaatlichung	-11.5574
▁wettkampf	-11.5574
▁youtube	-11.5574
▁zugespitzt	-11.5574
▁zurückgekehrt	-11.5574
▁äußerte	-11.5574
administration	-11.5574
erlaubnis	-11.5574
gestreckt	-11.5574
▁1989/90	-11.5574
▁existenz	-11.5574
▁laubblätter	-11.5574
▁staatsstreich	-11.5574
▁anonym	-11.5574
▁harmonie	-11.5574
▁raymond	-11.5574
▁sediment	-11.5574
▁vermehrt	-11.5574
▁pigalle	-11.5574
▁sidney	-11.5574
▁sportavia	-11.5574
▁spätgotische	-11.5574
▁substanz	-11.5574
▁kontrast	-11.5574
morphologisch	-11.5574
▁mächtigkeit	-11.5574
▁toulon	-11.5574
▁twitter	-11.5574
▁logib	-11.5575
▁vorwürfe	-11.5575
▁insekten	-11.5575
klassiker	-11.5575
▁überquert	-11.5575
▁recherche	-11.5575
▁sweet	-11.5575
▁zweigeschossige	-11.5575
▁decksteine	-11.5575
▁braunkohlegrube	-11.5575
▁sowjetarmee	-11.5575
▁agency	-11.5575
▁bartmann	-11.5575
▁community	-11.5575
▁entsandt	-11.5575
▁pornodarsteller	-11.5575
special	-11.5575
▁kelly	-11.5575
▁railway	-11.5575
▁republikaner	-11.5575
▁zivilisation	-11.5575
sniederschlag	-11.5575
▁syrien	-11.5575
▁physic	-11.5575
▁gemessen	-11.5575
▁tschad	-11.5576
▁genua	-11.5576
▁fortschritt	-11.5576
▁ligakonkurrent	-11.5576
nagyk	-11.5576
▁goethe	-11.5576
▁siedler	-11.5576
glanz	-11.5576
lafette	-11.5577
▁bühler	-11.5577
▁flint	-11.5578
▁again	-11.5578
examen	-11.5579
▁bewertet	-11.5579
▁hunger	-11.5579
1853	-11.5579
▁tsv	-11.558
▁eiserne	-11.5583
schmelz	-11.5583
▁petit	-11.5585
▁1808	-11.5589
▁vorläufige	-11.5591
▁steigende	-11.5592
▁überreste	-11.5593
bunker	-11.5595
▁informiert	-11.5595
unterwalden	-11.5608
sorbische	-11.5622
originaltitel	-11.5633
ministr	-11.5644
▁dieselbe	-11.5649
sofern	-11.5656
zky	-11.566
edaillengewinner	-11.5665
bright	-11.5694
lehranstalt	-11.5708
außen	-11.571
moschee	-11.5806
parlament	-11.5814
republik	-11.5815
gewässer	-11.5816
kongress	-11.5818
griechisch	-11.5818
jazz	-11.5819
charakter	-11.5819
qualität	-11.582
kaiser	-11.5821
erzbischof	-11.5826
wolf	-11.5827
blue	-11.5834
▁anliegen	-11.5835
▁dinge	-11.5858
▁oberkommand	-11.587
flanke	-11.587
gespräche	-11.5883
ctive	-11.5941
schön	-11.5972
weihte	-11.598
sexuelle	-11.5984
schränkt	-11.6045
▁mountain	-11.6051
bewaffnung	-11.6051
dustrialisierung	-11.6051
phänomen	-11.6051
ständischen	-11.6051
symphonie	-11.6051
synchronspringen	-11.6051
titelverteidiger	-11.6051
wulckow	-11.6051
▁(1998)	-11.6051
▁angeklagt	-11.6051
▁beherrscht	-11.6051
▁bewässerung	-11.6051
▁clemens	-11.6051
▁föderation	-11.6051
▁gesandtschaft	-11.6051
▁gewährleisten	-11.6051
▁giorgio	-11.6051
▁grigoris	-11.6051
▁günther	-11.6051
▁holocaust	-11.6051
▁immatrikuliert	-11.6051
▁kavallerie	-11.6051
▁kittlitz	-11.6051
▁kuratorium	-11.6051
▁ljubljana	-11.6051
▁modifiziert	-11.6051
▁mühlschlegel	-11.6051
▁tiendalli	-11.6051
▁vorgenommen	-11.6051
▁wilhelmshaven	-11.6051
▁zufällig	-11.6051
▁avanzo	-11.6051
▁diagnos	-11.6051
▁heavy	-11.6051
▁helgoland	-11.6051
▁zeichner	-11.6051
ivoire	-11.6051
▁abidjan	-11.6051
▁bielefeld	-11.6051
▁bingham	-11.6051
▁getauft	-11.6051
▁unterirdisch	-11.6051
kettwig	-11.6051
▁committee	-11.6051
häuschen	-11.6051
ützrichtstation	-11.6051
▁flandern	-11.6051
▁hughes	-11.6051
▁nigrische	-11.6051
▁toledo	-11.6051
▁empfangen	-11.6051
revue	-11.6051
▁airlines	-11.6051
▁erzieher	-11.6051
▁gilbert	-11.6051
▁imperial	-11.6051
▁picture	-11.6051
▁vorbereitet	-11.6051
▁havre	-11.6051
▁landeskog	-11.6051
▁vollkommen	-11.6051
trouble	-11.6051
▁jakobsweg	-11.6051
▁teufel	-11.6051
▁verhaftung	-11.6051
▁gattin	-11.6051
▁abgebildet	-11.6051
▁iseki	-11.6051
▁meeresspiegel	-11.6051
▁vieira	-11.6051
▁mohamm	-11.6051
▁lochbach	-11.6051
▁begründer	-11.6051
▁degland	-11.6051
▁lettland	-11.6051
▁zdf	-11.6051
präsenz	-11.6051
▁verarbeitet	-11.6052
▁kpd	-11.6052
▁dunkelbraun	-11.6052
▁datierung	-11.6052
▁regierungskrise	-11.6052
▁verleger	-11.6052
▁burgenland	-11.6052
▁grimm	-11.6052
▁variable	-11.6052
▁luftflotte	-11.6052
▁classic	-11.6052
▁fachzeitschrift	-11.6052
▁zweitsprache	-11.6052
▁torschütze	-11.6052
▁0:1	-11.6052
teppich	-11.6053
▁bemerkt	-11.6053
fränkische	-11.6054
gehäuse	-11.6054
habitat	-11.6055
▁ayma	-11.6057
▁kunz	-11.6058
▁glücklich	-11.606
▁pelz	-11.6062
▁falk	-11.6065
nähe	-11.6067
caspar	-11.607
▁anatol	-11.6073
atlas	-11.6082
▁lettische	-11.6114
melodi	-11.6147
schwung	-11.6155
▁persische	-11.6161
dokumente	-11.6178
klinge	-11.6217
heinz	-11.6301
rektor	-11.6311
▁konservativ	-11.6313
redakteur	-11.6316
eigenschaften	-11.6317
völker	-11.6317
ensemble	-11.6318
komposition	-11.6318
world	-11.6318
register	-11.6319
video	-11.6321
rahmen	-11.6321
spannung	-11.6324
▁rhythm	-11.6336
entscheidung	-11.6338
schritt	-11.6358
▁müsse	-11.6378
▁leyla	-11.639
▁letzt	-11.6402
pionier	-11.6508
▁museo	-11.6517
nfallkrankenhaus	-11.6528
▁widmet	-11.653
schleuder	-11.6543
splitter	-11.6551
▁koadjutor	-11.6551
▁patrizier	-11.6551
▁schwangerschaft	-11.6551
diagramm	-11.6551
rdensgeistlicher	-11.6551
stämmige	-11.6551
▁angelehnt	-11.6551
▁ausdrücklich	-11.6551
▁baltimore	-11.6551
▁bedürfnisse	-11.6551
▁collegia	-11.6551
▁dramaturg	-11.6551
▁edmonton	-11.6551
▁ereignete	-11.6551
▁flexib	-11.6551
▁friederike	-11.6551
▁geklärt	-11.6551
▁gemeldet	-11.6551
▁gonzález	-11.6551
▁hongkong	-11.6551
▁identität	-11.6551
▁inspektion	-11.6551
▁kellerhals	-11.6551
▁konzession	-11.6551
▁lucrezia	-11.6551
▁manuskripte	-11.6551
▁maranhão	-11.6551
▁medikament	-11.6551
▁mercedes	-11.6551
▁ordinari	-11.6551
▁sommersemester	-11.6551
▁thüringer	-11.6551
▁uraufgeführt	-11.6551
▁varesnes	-11.6551
▁vikariat	-11.6551
▁vornehmlich	-11.6551
▁öffnet	-11.6551
jubiläum	-11.6551
▁belfast	-11.6551
▁director	-11.6551
▁garnison	-11.6551
▁lampersdorf	-11.6551
▁skilangläufer	-11.6551
geschaltet	-11.6551
▁relikte	-11.6551
▁göllheim	-11.6551
▁zweithöchste	-11.6551
▁doppelsitzer	-11.6551
▁wellington	-11.6551
▁kombiniert	-11.6551
▁aufgegriffen	-11.6551
▁channel	-11.6551
▁schäfer	-11.6551
▁gertrud	-11.6551
▁jahns	-11.6551
▁mountainbike	-11.6551
▁sinatra	-11.6551
sichtsplattform	-11.6551
▁gehoben	-11.6551
▁böhmen	-11.6551
▁domingo	-11.6551
▁1553	-11.6551
▁violett	-11.6551
chitral	-11.6551
quadratkilometer	-11.6551
▁veraltet	-11.6551
▁racing	-11.6551
▁beckett	-11.6551
libanon	-11.6551
▁ziegel	-11.6551
▁gutachten	-11.6551
▁schmutz	-11.6551
▁synchronisation	-11.6551
▁luís	-11.6551
▁rötlich	-11.6551
egabtenförderung	-11.6551
▁angreifer	-11.6551
▁gelingt	-11.6551
uvre	-11.6551
▁graeca	-11.6552
▁reagiert	-11.6552
▁logistik	-11.6552
▁kansas	-11.6552
▁meldete	-11.6552
▁tribut	-11.6552
▁plön	-11.6552
▁biblische	-11.6552
kanäle	-11.6553
▁legion	-11.6554
grammatik	-11.6554
koroplast	-11.6555
▁verhäng	-11.6557
▁angst	-11.6557
▁aquin	-11.6557
attacke	-11.6559
sternwarte	-11.6559
▁agrar	-11.656
▁karolin	-11.656
▁wildunge	-11.6561
stream	-11.6564
▁lukas	-11.6566
▁frederic	-11.6571
▁nachhaltige	-11.6575
parlamentarische	-11.6579
sassen	-11.6581
▁gunst	-11.6589
kundig	-11.6595
▁beibehalt	-11.6602
chofskonferenz	-11.6606
lateinisch	-11.6625
elektronik	-11.6638
nidad	-11.667
begleitung	-11.667
gesundheitswesen	-11.669
verständ	-11.6702
▁markante	-11.6714
amerika	-11.6787
▁zeichnet	-11.6792
▁pharmazie	-11.6819
kommandant	-11.6843
höchst	-11.6843
krankheit	-11.6843
kassel	-11.6844
tradition	-11.6845
später	-11.6846
wetter	-11.6846
bayerische	-11.6846
stützpunkt	-11.6848
▁präsent	-11.6863
▁publikation	-11.6899
▁etabliert	-11.6958
exemplar	-11.6978
▁sebasti	-11.7045
plastik	-11.7073
konservator	-11.7077
präfekt	-11.7077
▁ausgeschieden	-11.7077
bekämpfung	-11.7077
kongregation	-11.7077
kronenzipfel	-11.7077
portfolio	-11.7077
universidad	-11.7077
▁advance	-11.7077
▁allmählich	-11.7077
▁bischöfliche	-11.7077
▁bogotá	-11.7077
▁bremerhaven	-11.7077
▁brütting	-11.7077
▁byzantinische	-11.7077
▁cemetery	-11.7077
▁chargeurs	-11.7077
▁dobbertin	-11.7077
▁ergänzen	-11.7077
▁erklären	-11.7077
▁gegossen	-11.7077
▁gekrönt	-11.7077
▁geschmückt	-11.7077
▁gestohlen	-11.7077
▁isabella	-11.7077
▁katholiken	-11.7077
▁konkurrieren	-11.7077
▁kostüm	-11.7077
▁kroatien	-11.7077
▁lillehammer	-11.7077
▁lincoln	-11.7077
▁länglich	-11.7077
▁mignon	-11.7077
▁nachträglich	-11.7077
▁nebenflüsse	-11.7077
▁provisorische	-11.7077
▁prävention	-11.7077
▁ruhpolding	-11.7077
▁schaibing	-11.7077
▁seidenpflanzen	-11.7077
▁skilanglauf	-11.7077
▁territorial	-11.7077
▁unterstützer	-11.7077
▁vielfältige	-11.7077
▁äthiopien	-11.7077
gebühr	-11.7077
spektrum	-11.7077
▁beantragt	-11.7077
▁biedermann	-11.7077
▁hilfskreuzer	-11.7077
▁nahegelegene	-11.7077
▁rechengerät	-11.7077
▁zypern	-11.7077
gumbinnen	-11.7077
tägige	-11.7077
▁besmedin	-11.7077
▁konsolen	-11.7077
▁lorenzo	-11.7077
▁malinowski	-11.7077
▁stadtverordnete	-11.7077
sdurchschnitts	-11.7077
▁investiert	-11.7077
▁olivencia	-11.7077
diktatur	-11.7077
▁flaumig	-11.7077
▁weidmann	-11.7077
▁zugeteilt	-11.7077
▁ausgelöst	-11.7077
gefäß	-11.7077
▁kellerwald	-11.7077
▁howard	-11.7077
▁rebellen	-11.7077
▁square	-11.7077
▁hakki	-11.7077
▁schiefer	-11.7077
▁cicero	-11.7077
▁pilger	-11.7077
▁schilling	-11.7077
▁vergessen	-11.7077
▁böhmische	-11.7077
▁blyth	-11.7077
▁nutzer	-11.7077
▁saxo	-11.7077
▁libysch	-11.7077
▁oregon	-11.7077
▁reichweite	-11.7077
schleppt	-11.7077
▁kollegger	-11.7077
▁invasion	-11.7077
▁mozart	-11.7077
triumph	-11.7077
▁gulden	-11.7077
▁basalt	-11.7077
▁luftziele	-11.7078
▁tampa	-11.7078
▁landebahn	-11.7078
▁industriellen	-11.7078
märkische	-11.7078
▁spanier	-11.7078
▁schatten	-11.7078
▁drogen	-11.7078
▁gezielt	-11.7078
▁antoine	-11.7078
▁kraj	-11.7078
▁kostete	-11.7079
▁avery	-11.7079
▁reuter	-11.7079
▁abstrakt	-11.7079
▁mitchell	-11.7079
▁pannon	-11.7079
▁verehrt	-11.708
veteran	-11.708
wachstum	-11.708
erbraucherschutz	-11.7082
▁blind	-11.7082
schätze	-11.7083
spindel	-11.7083
▁prägte	-11.7084
gebilde	-11.7086
werkstätten	-11.7086
▁erregte	-11.7097
viertelfinal	-11.7111
köpfe	-11.7112
▁biologische	-11.7119
▁garantie	-11.7134
verfügbarkeit	-11.7194
reinigung	-11.7209
erweck	-11.7218
jonas	-11.7251
deutlich	-11.7276
wirtschaftslehre	-11.734
▁techno	-11.736
verhältnis	-11.7376
baracke	-11.7396
kapazität	-11.7398
schäden	-11.7399
dokumentation	-11.7399
kommandeur	-11.7399
anonymous	-11.7399
dörfer	-11.7399
mädchen	-11.7399
nördlichen	-11.74
jagd	-11.7403
portugiesisch	-11.7426
horizont	-11.7549
resonan	-11.7551
▁challenge	-11.7585
germanisch	-11.7591
▁erkennt	-11.7607
▁griechen	-11.7627
konkurrent	-11.7631
▁demonstra	-11.7631
▁ehrendoktor	-11.7632
▁göteborg	-11.7632
bromethanol	-11.7633
guangzhou	-11.7633
▁(2010)	-11.7633
▁aquarell	-11.7633
▁attawapiskat	-11.7633
▁bedeutsam	-11.7633
▁beeinflussen	-11.7633
▁befestigung	-11.7633
▁berechnet	-11.7633
▁beschlagnahmt	-11.7633
▁broadway	-11.7633
▁buckingham	-11.7633
▁chloros	-11.7633
▁cornutus	-11.7633
▁download	-11.7633
▁dreifaltigkeit	-11.7633
▁episcopal	-11.7633
▁erzherzog	-11.7633
▁etablieren	-11.7633
▁gefälschte	-11.7633
▁geschwister	-11.7633
▁großzügig	-11.7633
▁habsburger	-11.7633
▁ignatius	-11.7633
▁inklusive	-11.7633
▁klagenfurt	-11.7633
▁konstantinopel	-11.7633
▁korruption	-11.7633
▁laboratory	-11.7633
▁macquarie	-11.7633
▁möbius	-11.7633
▁palazzo	-11.7633
▁panduru	-11.7633
▁privatdozent	-11.7633
▁prognose	-11.7633
▁realoptionen	-11.7633
▁regulator	-11.7633
▁resultierende	-11.7633
▁slowenien	-11.7633
▁versammelt	-11.7633
▁verwirklicht	-11.7633
▁veräußert	-11.7633
▁übersiedelte	-11.7633
pavillon	-11.7633
treibung	-11.7633
▁1990/91	-11.7633
▁chayanta	-11.7633
▁gliedert	-11.7633
▁justice	-11.7633
▁martelly	-11.7633
detektor	-11.7633
giacomo	-11.7633
terdisziplinäre	-11.7633
äußerung	-11.7633
▁aargau	-11.7633
▁ausübung	-11.7633
▁brisbane	-11.7633
▁gepflegt	-11.7633
▁geschieden	-11.7633
▁hawaii	-11.7633
▁hufeisen	-11.7633
▁ländereien	-11.7633
▁population	-11.7633
▁allianz	-11.7633
▁analytische	-11.7633
▁ansätze	-11.7633
▁signatur	-11.7633
▁vermeiden	-11.7633
▁serbien	-11.7633
▁bühlertann	-11.7633
▁detroit	-11.7633
▁rademacher	-11.7633
▁husaren	-11.7633
▁schließung	-11.7633
▁nagano	-11.7633
▁partitur	-11.7633
▁verschoben	-11.7633
▁dylan	-11.7633
▁gerettet	-11.7633
löffel	-11.7633
▁unklar	-11.7633
▁ventral	-11.7633
dienstleister	-11.7633
▁padua	-11.7633
▁enrico	-11.7633
▁makower	-11.7633
▁konstanz	-11.7633
▁kantonsschule	-11.7633
▁samstag	-11.7633
▁abgetorft	-11.7633
▁juventu	-11.7633
▁ángel	-11.7633
▁seoul	-11.7633
▁rassem	-11.7633
▁vertikal	-11.7633
▁worms	-11.7633
▁nancy	-11.7633
▁ziegen	-11.7633
▁gelöst	-11.7633
▁zensur	-11.7633
▁gelebt	-11.7633
▁abbott	-11.7633
▁separat	-11.7633
▁untersuchen	-11.7633
▁bekommt	-11.7633
▁vermachte	-11.7633
▁émil	-11.7633
svíd	-11.7633
▁nantes	-11.7633
▁betreffend	-11.7633
▁yards	-11.7633
▁verdacht	-11.7634
▁stereo	-11.7634
gerüst	-11.7634
streitigkeiten	-11.7634
▁command	-11.7634
dämme	-11.7635
▁ivorische	-11.7635
pistole	-11.7635
manöver	-11.7636
▁tendenz	-11.7637
▁vaterländische	-11.7638
sunterhalt	-11.7638
franchise	-11.7639
–155	-11.764
▁inhaftiert	-11.7641
▁geformt	-11.7641
gestimmt	-11.7641
▁2:0	-11.7641
avenbach	-11.7643
▁syrisch	-11.7644
vogesen	-11.7645
▁anzeige	-11.7645
▁xxi	-11.765
stäbe	-11.7654
unendliche	-11.7658
▁2:1	-11.7669
yuki	-11.7671
▁albanische	-11.7677
gypti	-11.7689
stabilität	-11.769
straßenkilometer	-11.7711
kaspar	-11.7749
▁mechanik	-11.7764
▁konfession	-11.7839
eisenbahnstrecke	-11.7887
*	-11.7929
firmen	-11.7984
ökonom	-11.7987
sparkasse	-11.7987
verfolgung	-11.7987
torpedo	-11.7987
schmidt	-11.7987
philipp	-11.7988
eigentlich	-11.7988
veröffentlicht	-11.7988
%	-11.7989
schrieb	-11.7995
▁kategori	-11.7996
klassisch	-11.8061
bürg	-11.8115
telfeldspieler	-11.8155
stärkt	-11.8208
flockenblume	-11.8221
▁enttäusch	-11.8221
backgroundsänger	-11.8221
bartolome	-11.8221
gunzenhausen	-11.8221
lawrence	-11.8221
sōryū	-11.8221
▁abkürzung	-11.8221
▁administrator	-11.8221
▁antisemitische	-11.8221
▁antwerpen	-11.8221
▁aussichtsturm	-11.8221
▁birmingham	-11.8221
▁bispgården	-11.8221
▁bistümer	-11.8221
▁chulainn	-11.8221
▁cleveland	-11.8221
▁dimension	-11.8221
▁durchfließt	-11.8221
▁enosburgh	-11.8221
▁erschließung	-11.8221
▁garcía	-11.8221
▁gegenwärtig	-11.8221
▁jeffrey	-11.8221
▁jungfernfahrt	-11.8221
▁kaiserslautern	-11.8221
▁konsistorium	-11.8221
▁kontinuierlich	-11.8221
▁lörrach	-11.8221
▁milwaukee	-11.8221
▁nennenswerte	-11.8221
▁presbyteri	-11.8221
▁pächter	-11.8221
▁ramírez	-11.8221
▁securitas	-11.8221
▁shepard	-11.8221
▁singapur	-11.8221
▁soundtrack	-11.8221
▁stangneth	-11.8221
▁stirbt	-11.8221
▁strohmayer	-11.8221
▁südtirol	-11.8221
▁torvorlagen	-11.8221
▁verstärkung	-11.8221
▁wiederaufstieg	-11.8221
▁zeitweilig	-11.8221
▁zweitklassige	-11.8221
hohenzollern	-11.8221
honorarprofessor	-11.8221
▁1988/89	-11.8221
▁dauphin	-11.8221
▁harkortberg	-11.8221
▁investoren	-11.8221
▁konzentrations	-11.8221
▁simultan	-11.8221
▁venetien	-11.8221
▁veranlasste	-11.8221
pützer	-11.8221
▁annähern	-11.8221
▁marokko	-11.8221
▁suizid	-11.8221
▁thailand	-11.8221
▁wolodin	-11.8221
eisenbarth	-11.8221
▁cholera	-11.8221
▁lrasm	-11.8221
▁munition	-11.8221
▁darwini	-11.8221
▁pedersen	-11.8221
▁erholung	-11.8221
▁hengst	-11.8221
édér	-11.8221
▁gütersloh	-11.8221
▁rugby	-11.8221
referendar	-11.8221
▁aurora	-11.8221
▁electro	-11.8221
▁namhafte	-11.8221
▁verwandtschaft	-11.8221
▁subaru	-11.8221
▁apostel	-11.8221
▁beschafft	-11.8221
▁dinamo	-11.8221
▁kognitive	-11.8221
▁tatsache	-11.8221
▁wiederkehrende	-11.8221
▁komplexität	-11.8221
▁dominierende	-11.8221
▁verschwinden	-11.8221
▁mappy	-11.8221
▁mautner	-11.8221
▁angebunden	-11.8221
▁vorrangig	-11.8221
▁öfter	-11.8221
department	-11.8221
kompatib	-11.8221
▁auswärtsspiel	-11.8221
▁gebietsreform	-11.8221
▁pommern	-11.8221
▁vernichtung	-11.8221
▁ohnesorg	-11.8221
▁pablo	-11.8221
▁gehabt	-11.8221
▁geholt	-11.8221
▁akustisch	-11.8221
condock	-11.8221
▁bahia	-11.8221
▁autonome	-11.8221
▁bedienen	-11.8221
▁bewarb	-11.8221
cathay	-11.8221
▁arnsberg	-11.8221
▁centho	-11.8221
▁vereinbarung	-11.8221
▁jewgen	-11.8221
vielfalt	-11.8221
▁feuchtgebiet	-11.8221
▁vergeblich	-11.8221
▁zitiert	-11.8222
▁überzeugung	-11.8222
medaillenspiegel	-11.8222
▁effektiv	-11.8222
nassau	-11.8222
wünsche	-11.8223
▁bezeugt	-11.8224
streben	-11.8227
zionistische	-11.8229
▁kommissarisch	-11.823
gecko	-11.8238
wüstung	-11.8249
produktionsfirma	-11.8252
▁pflegt	-11.8252
rennwagen	-11.8254
libelle	-11.8295
homosexu	-11.8305
▁horizon	-11.8307
▁photo	-11.832
▁genital	-11.8323
vorhersage	-11.8323
▁1:2	-11.8324
treckenabschnitt	-11.8338
bremse	-11.8339
rundfahrt	-11.8372
▁verzichtet	-11.839
regierungsbezirk	-11.8417
gerichtshof	-11.8418
fassungsgericht	-11.8455
sächsische	-11.8538
jungfer	-11.8545
synchron	-11.8612
gemälde	-11.8612
diplom	-11.8613
joseph	-11.8613
louis	-11.8614
judentum	-11.8674
blume	-11.8675
haushalt	-11.8718
▁repräsentant	-11.8764
▁eisenhütten	-11.8766
▁apostoli	-11.8774
▁relegation	-11.8803
▁venezia	-11.8822
treibt	-11.8832
▁korrespondier	-11.8846
▁newcastle	-11.8846
▁settlement	-11.8846
atmosphäre	-11.8846
guillaume	-11.8846
hypothese	-11.8846
observatorium	-11.8846
potenzial	-11.8846
reflexion	-11.8846
sträucher	-11.8846
ventimiglia	-11.8846
verschwörung	-11.8846
weiterentwickelt	-11.8846
▁(2015)	-11.8846
▁2004/2005	-11.8846
▁altrincham	-11.8846
▁apotheker	-11.8846
▁bedroht	-11.8846
▁befürchtet	-11.8846
▁berührt	-11.8846
▁blockade	-11.8846
▁brauerei	-11.8846
▁chinantekisch	-11.8846
▁eingenommen	-11.8846
▁einschätzung	-11.8846
▁festgenommen	-11.8846
▁fleurquín	-11.8846
▁gefährdung	-11.8846
▁gemahlin	-11.8846
▁genügend	-11.8846
▁gewährt	-11.8846
▁graubünden	-11.8846
▁gwendol	-11.8846
▁herzinfarkt	-11.8846
▁hummelmühle	-11.8846
▁identifiziert	-11.8846
▁keyboarder	-11.8846
▁legitim	-11.8846
▁ligérien	-11.8846
▁macdonald	-11.8846
▁malaysia	-11.8846
▁mumbai	-11.8846
▁pérez	-11.8846
▁rehabilitation	-11.8846
▁rozenthal	-11.8846
▁räumlichkeiten	-11.8846
▁sekundär	-11.8846
▁silvestre	-11.8846
▁siricius	-11.8846
▁trinkwasser	-11.8846
▁unterscheidung	-11.8846
▁ursprünge	-11.8846
▁verkleidet	-11.8846
▁verpillières	-11.8846
▁woiwodschaft	-11.8846
▁äquivalent	-11.8846
esperanto	-11.8846
koordination	-11.8846
zylindrisch	-11.8846
▁1993/94	-11.8846
▁arzneimittel	-11.8846
▁beerdigung	-11.8846
▁braschwitz	-11.8846
▁fortaleza	-11.8846
▁fußgänger	-11.8846
▁mülheim	-11.8846
▁neuauflage	-11.8846
▁promenade	-11.8846
▁quechua	-11.8846
▁repräsentativ	-11.8846
▁vechelde	-11.8846
▁verwitterung	-11.8846
▁windkraftanlage	-11.8846
thriller	-11.8846
▁aristak	-11.8846
▁aristide	-11.8846
▁hayward	-11.8846
▁lippert	-11.8846
▁massaker	-11.8846
▁oschatz	-11.8846
▁sudheimer	-11.8846
▁(2003)	-11.8846
▁fölsch	-11.8846
▁irenae	-11.8846
▁isaac	-11.8846
▁raiders	-11.8846
▁yahya	-11.8846
▁haltepunkt	-11.8846
▁variabel	-11.8846
▁wohlhabende	-11.8846
▁erkrankt	-11.8846
▁guthrie	-11.8846
▁taufstein	-11.8846
▁untersektion	-11.8846
▁handglocken	-11.8846
▁http	-11.8846
▁infrarot	-11.8846
maschinengewehr	-11.8846
▁gewichtsklasse	-11.8846
▁ivkovi	-11.8846
▁vernichtet	-11.8846
▁dmitri	-11.8846
▁hybrid	-11.8846
▁köhler	-11.8846
▁snyder	-11.8846
▁itunes	-11.8846
▁aldeia	-11.8846
grundsteinlegung	-11.8846
▁brothers	-11.8846
▁ismaning	-11.8846
fragment	-11.8846
▁infektion	-11.8846
▁wohlfahrts	-11.8846
▁müsste	-11.8846
ahrweiler	-11.8846
▁adenauer	-11.8846
kriterien	-11.8846
▁lahti	-11.8846
durandal	-11.8846
▁verkörperte	-11.8846
▁brannte	-11.8846
bezogene	-11.8846
übergreifende	-11.8846
▁gehörig	-11.8847
▁geregelt	-11.8847
sexual	-11.8847
comorin	-11.8848
kaveh	-11.8848
anwärter	-11.8848
▁podest	-11.8848
prospekt	-11.8849
▁preventi	-11.8849
▁transatlanti	-11.885
oratorium	-11.885
▁enorme	-11.8851
bobby	-11.8851
apparat	-11.8851
▁rettet	-11.8854
▁kolonis	-11.8856
▁formulier	-11.8857
dolch	-11.8858
gefragt	-11.8867
ameise	-11.8869
crew	-11.8876
atrix	-11.8888
steirische	-11.8929
maximilians	-11.9008
elementar	-11.9278
befehl	-11.9278
elektro	-11.9279
kristall	-11.9279
finanz	-11.928
zusammen	-11.928
interesse	-11.9281
frosch	-11.9302
▁berücksichtig	-11.9304
▁universit	-11.9449
▁elfenbein	-11.9512
ultimate	-11.9512
▁spätmittelalter	-11.9512
ceratops	-11.9512
konstrukteur	-11.9512
mechanismen	-11.9512
provincial	-11.9512
pädagogin	-11.9512
ulricehamn	-11.9512
wöchige	-11.9512
▁(1938–194	-11.9512
▁1999/2000	-11.9512
▁aluminium	-11.9512
▁anthropolog	-11.9512
▁arrangement	-11.9512
▁begräbnisstätte	-11.9512
▁begrüßt	-11.9512
▁beschäftigen	-11.9512
▁bonaparte	-11.9512
▁bourgeois	-11.9512
▁boykott	-11.9512
▁buddhismus	-11.9512
▁bäuerliche	-11.9512
▁clayton	-11.9512
▁dazugehörige	-11.9512
▁edinburgh	-11.9512
▁einbezogen	-11.9512
▁erkämpfte	-11.9512
▁executive	-11.9512
▁explizit	-11.9512
▁fernwanderweg	-11.9512
▁fettschwalm	-11.9512
▁gebräuchlich	-11.9512
▁graphdatenbank	-11.9512
▁guadalajara	-11.9512
▁gänzlich	-11.9512
▁hampstead	-11.9512
▁houellebecq	-11.9512
▁initiator	-11.9512
▁jayjay	-11.9512
▁klemperer	-11.9512
▁kontrafaktische	-11.9512
▁löffler	-11.9512
▁medaillon	-11.9512
▁milbourne	-11.9512
▁mündliche	-11.9512
▁neugegründete	-11.9512
▁ouattara	-11.9512
▁papiorek	-11.9512
▁pokljuka	-11.9512
▁popularität	-11.9512
▁potosí	-11.9512
▁runcorn	-11.9512
▁réunis	-11.9512
▁savoyen	-11.9512
▁sorbonne	-11.9512
▁säkularis	-11.9512
▁tennessee	-11.9512
▁tradeshift	-11.9512
▁vleminckx	-11.9512
▁vouilloz	-11.9512
▁wahrgenommen	-11.9512
▁xainctonge	-11.9512
▁ähneln	-11.9512
▁äquivalenz	-11.9512
abgekürzt	-11.9512
analysis	-11.9512
gärtner	-11.9512
stöckige	-11.9512
widderchen	-11.9512
wölbt	-11.9512
▁1979/80	-11.9512
▁1991/92	-11.9512
▁1995/96	-11.9512
▁boulting	-11.9512
▁burlington	-11.9512
▁composer	-11.9512
▁drängte	-11.9512
▁elektrizität	-11.9512
▁flankiert	-11.9512
▁generalvikar	-11.9512
▁irgendw	-11.9512
▁knöpfe	-11.9512
▁kümmert	-11.9512
▁porzellan	-11.9512
▁pulcer	-11.9512
▁rivière	-11.9512
▁sitzungsperiode	-11.9512
▁uschakow	-11.9512
▁väterliche	-11.9512
gehängt	-11.9512
syndrom	-11.9512
verschiebung	-11.9512
▁bjds	-11.9512
▁blütenstiel	-11.9512
▁klöster	-11.9512
▁neolithische	-11.9512
▁tödlich	-11.9512
▁verwaltet	-11.9512
▁baumwoll	-11.9512
▁gibelet	-11.9512
▁konfrontiert	-11.9512
▁academi	-11.9512
▁sandschak	-11.9512
▁stabschef	-11.9512
▁steuerbord	-11.9512
▁saedler	-11.9512
▁veolia	-11.9512
▁luxus	-11.9512
▁mixed	-11.9512
▁abschied	-11.9512
▁olinda	-11.9513
fussball	-11.9513
nucleus	-11.9513
sympathi	-11.9513
▁abhängigkeit	-11.9513
▁gibson	-11.9513
▁hobby	-11.9513
▁chassis	-11.9513
▁repariert	-11.9513
ursuline	-11.9513
▁schaufel	-11.9513
▁atelari	-11.9513
▁heidekönigin	-11.9513
▁sakral	-11.9513
▁namensgebende	-11.9513
1983/84	-11.9513
gesetzgebung	-11.9513
▁liquid	-11.9513
elliptisch	-11.9513
schlägt	-11.9513
▁vermutung	-11.9513
▁dreigeschossige	-11.9513
▁andauernde	-11.9513
huntebruch	-11.9513
zusammenhängende	-11.9513
▁firmier	-11.9513
teleskop	-11.9513
monatige	-11.9514
meldungen	-11.9514
▁scheune	-11.9514
▁abschließende	-11.9514
tätort	-11.9514
▁chronische	-11.9515
ürfnis	-11.9515
▁kantate	-11.9515
grammiersprachen	-11.9515
harmonisch	-11.9518
concert	-11.952
hövel	-11.9539
räumige	-11.9545
pazifik	-11.9616
empire	-11.9719
drohung	-11.9725
▁unterzeichnet	-11.9738
▁zünd	-11.9754
domäne	-11.9764
angehörige	-11.9943
hundert	-11.9983
gouverneur	-11.9992
allgemein	-11.9993
ausstattung	-11.9993
untersuchung	-11.9993
theologe	-11.9994
militär	-11.9995
niederländische	-11.9995
olivet	-12.0003
expansions	-12.0056
▁habilitiert	-12.0099
▁vorentscheid	-12.0197
anchises	-12.0219
berührung	-12.0227
▁bratislava	-12.0227
▁kompliziert	-12.0227
▁krämer	-12.0227
▁mitherausgeber	-12.0227
araujia	-12.0227
aufklärer	-12.0227
bengtsfors	-12.0227
dumaresq	-12.0227
entschädigung	-12.0227
gendarmerie	-12.0227
molekulare	-12.0227
schüttung	-12.0227
sekretariat	-12.0227
ulysses	-12.0227
wiedervernässung	-12.0227
überschwemmungen	-12.0227
▁(2007)	-12.0227
▁ablösesumme	-12.0227
▁affairs	-12.0227
▁aggressiv	-12.0227
▁alljährlich	-12.0227
▁beabsichtigt	-12.0227
▁beanspruchte	-12.0227
▁beeindruckt	-12.0227
▁beethoven	-12.0227
▁begrenzung	-12.0227
▁benutzer	-12.0227
▁beobachten	-12.0227
▁bouffier	-12.0227
▁brooklyn	-12.0227
▁buccaneers	-12.0227
▁buffalo	-12.0227
▁cambadélis	-12.0227
▁cimdars	-12.0227
▁empfahl	-12.0227
▁eurykles	-12.0227
▁exklusiv	-12.0227
▁extensiv	-12.0227
▁fiktive	-12.0227
▁filialkirche	-12.0227
▁geheiratet	-12.0227
▁gesperrt	-12.0227
▁gutiérrez	-12.0227
▁halifax	-12.0227
▁handtorfstich	-12.0227
▁humanitäre	-12.0227
▁individual	-12.0227
▁indonesien	-12.0227
▁isserlis	-12.0227
▁joscelin	-12.0227
▁kennedy	-12.0227
▁klungkung	-12.0227
▁lüttich	-12.0227
▁montréal	-12.0227
▁muslimisch	-12.0227
▁namibische	-12.0227
▁oberglogau	-12.0227
▁orleans	-12.0227
▁pacific	-12.0227
▁pforzheim	-12.0227
▁rahumäe	-12.0227
▁renaturiert	-12.0227
▁rodrigue	-12.0227
▁sakristei	-12.0227
▁seigneur	-12.0227
▁shanghai	-12.0227
▁sporadisch	-12.0227
▁teixeira	-12.0227
▁toulouse	-12.0227
▁universum	-12.0227
▁unterdrückung	-12.0227
▁unterklassige	-12.0227
▁vermietet	-12.0227
▁verschollen	-12.0227
▁vorherrschende	-12.0227
▁wikipedia	-12.0227
ã	-12.9178
ū	-14.2028
